{
  "version": "1.0",
  "truncation": null,
  "padding": null,
  "added_tokens": [
    {
      "id": 0,
      "special": true,
      "content": "<unk>",
      "single_word": false,
      "lstrip": false,
      "rstrip": false,
      "normalized": false
    }
  ],
  "normalizer": {
    "type": "NFKC"
  },
  "pre_tokenizer": {
    "type": "Metaspace",
    "replacement": "▁",
    "add_prefix_space": true
  },
  "post_processor": null,
  "decoder": {
    "type": "Metaspace",
    "replacement": "▁",
    "add_prefix_space": true
  },
  "model": {
    "type": "BPE",
    "dropout": null,
    "unk_token": null,
    "continuing_subword_prefix": null,
    "end_of_word_suffix": null,
    "fuse_unk": false,
    "vocab": {
      "<unk>": 0,
      "\n": 1,
      "!": 2,
      "\"": 3,
      "$": 4,
      "%": 5,
      "'": 6,
      ",": 7,
      "-": 8,
      ".": 9,
      "/": 10,
      "0": 11,
      "1": 12,
      "2": 13,
      "3": 14,
      "4": 15,
      "5": 16,
      "6": 17,
      "7": 18,
      "8": 19,
      "9": 20,
      "?": 21,
      "A": 22,
      "B": 23,
      "C": 24,
      "D": 25,
      "E": 26,
      "F": 27,
      "G": 28,
      "H": 29,
      "I": 30,
      "K": 31,
      "L": 32,
      "M": 33,
      "N": 34,
      "O": 35,
      "P": 36,
      "R": 37,
      "S": 38,
      "T": 39,
      "U": 40,
      "V": 41,
      "W": 42,
      "a": 43,
      "b": 44,
      "c": 45,
      "d": 46,
      "e": 47,
      "f": 48,
      "g": 49,
      "h": 50,
      "i": 51,
      "k": 52,
      "l": 53,
      "m": 54,
      "n": 55,
      "o": 56,
      "p": 57,
      "r": 58,
      "s": 59,
      "t": 60,
      "u": 61,
      "v": 62,
      "x": 63,
      "y": 64,
      "~": 65,
      "°": 66,
      "▁": 67,
      "가": 68,
      "각": 69,
      "간": 70,
      "갈": 71,
      "감": 72,
      "갑": 73,
      "값": 74,
      "갓": 75,
      "갔": 76,
      "강": 77,
      "갖": 78,
      "같": 79,
      "개": 80,
      "객": 81,
      "갤": 82,
      "갱": 83,
      "걔": 84,
      "거": 85,
      "걱": 86,
      "건": 87,
      "걸": 88,
      "검": 89,
      "겁": 90,
      "것": 91,
      "겉": 92,
      "게": 93,
      "겐": 94,
      "겟": 95,
      "겠": 96,
      "겨": 97,
      "격": 98,
      "겪": 99,
      "견": 100,
      "결": 101,
      "겹": 102,
      "겼": 103,
      "경": 104,
      "곁": 105,
      "계": 106,
      "고": 107,
      "곡": 108,
      "곤": 109,
      "곧": 110,
      "골": 111,
      "곱": 112,
      "곳": 113,
      "공": 114,
      "과": 115,
      "관": 116,
      "광": 117,
      "괜": 118,
      "괴": 119,
      "굉": 120,
      "교": 121,
      "구": 122,
      "국": 123,
      "군": 124,
      "굴": 125,
      "굽": 126,
      "궁": 127,
      "권": 128,
      "귀": 129,
      "규": 130,
      "균": 131,
      "그": 132,
      "극": 133,
      "근": 134,
      "글": 135,
      "긁": 136,
      "금": 137,
      "급": 138,
      "긍": 139,
      "기": 140,
      "긴": 141,
      "길": 142,
      "김": 143,
      "깁": 144,
      "깃": 145,
      "깊": 146,
      "까": 147,
      "깎": 148,
      "깐": 149,
      "깔": 150,
      "깜": 151,
      "깝": 152,
      "깨": 153,
      "꺼": 154,
      "껍": 155,
      "껑": 156,
      "께": 157,
      "껴": 158,
      "꼈": 159,
      "꼭": 160,
      "꼼": 161,
      "꽃": 162,
      "꽤": 163,
      "꾸": 164,
      "꿀": 165,
      "꿈": 166,
      "꿔": 167,
      "끄": 168,
      "끈": 169,
      "끊": 170,
      "끌": 171,
      "끓": 172,
      "끔": 173,
      "끗": 174,
      "끝": 175,
      "끼": 176,
      "낄": 177,
      "낌": 178,
      "나": 179,
      "낙": 180,
      "난": 181,
      "날": 182,
      "남": 183,
      "납": 184,
      "낫": 185,
      "났": 186,
      "낭": 187,
      "낮": 188,
      "내": 189,
      "낸": 190,
      "낼": 191,
      "냄": 192,
      "냅": 193,
      "냈": 194,
      "냉": 195,
      "냐": 196,
      "냥": 197,
      "너": 198,
      "넌": 199,
      "널": 200,
      "넓": 201,
      "넘": 202,
      "넛": 203,
      "넣": 204,
      "네": 205,
      "넥": 206,
      "넷": 207,
      "녀": 208,
      "녁": 209,
      "년": 210,
      "념": 211,
      "녕": 212,
      "노": 213,
      "녹": 214,
      "논": 215,
      "놀": 216,
      "농": 217,
      "높": 218,
      "놓": 219,
      "뇨": 220,
      "누": 221,
      "눈": 222,
      "눌": 223,
      "눠": 224,
      "뉴": 225,
      "늄": 226,
      "느": 227,
      "는": 228,
      "늘": 229,
      "능": 230,
      "늦": 231,
      "늬": 232,
      "니": 233,
      "닉": 234,
      "닌": 235,
      "닐": 236,
      "님": 237,
      "닙": 238,
      "닛": 239,
      "닝": 240,
      "다": 241,
      "닥": 242,
      "단": 243,
      "닫": 244,
      "달": 245,
      "닭": 246,
      "담": 247,
      "답": 248,
      "당": 249,
      "닿": 250,
      "대": 251,
      "더": 252,
      "덕": 253,
      "던": 254,
      "덜": 255,
      "덤": 256,
      "덮": 257,
      "데": 258,
      "델": 259,
      "도": 260,
      "독": 261,
      "돈": 262,
      "돋": 263,
      "돌": 264,
      "돕": 265,
      "동": 266,
      "돼": 267,
      "됐": 268,
      "되": 269,
      "된": 270,
      "될": 271,
      "됩": 272,
      "두": 273,
      "둔": 274,
      "둘": 275,
      "둡": 276,
      "둥": 277,
      "뒤": 278,
      "뒷": 279,
      "듀": 280,
      "드": 281,
      "득": 282,
      "든": 283,
      "듣": 284,
      "들": 285,
      "듬": 286,
      "듭": 287,
      "듯": 288,
      "등": 289,
      "디": 290,
      "딘": 291,
      "딜": 292,
      "딥": 293,
      "딩": 294,
      "따": 295,
      "딱": 296,
      "딸": 297,
      "땀": 298,
      "땅": 299,
      "때": 300,
      "떠": 301,
      "떡": 302,
      "떤": 303,
      "떨": 304,
      "떻": 305,
      "또": 306,
      "똑": 307,
      "뚜": 308,
      "뛰": 309,
      "뜨": 310,
      "뜻": 311,
      "띄": 312,
      "라": 313,
      "락": 314,
      "란": 315,
      "랄": 316,
      "람": 317,
      "랍": 318,
      "랐": 319,
      "랑": 320,
      "래": 321,
      "랙": 322,
      "랜": 323,
      "램": 324,
      "랩": 325,
      "랫": 326,
      "랬": 327,
      "략": 328,
      "량": 329,
      "러": 330,
      "럭": 331,
      "런": 332,
      "럴": 333,
      "럼": 334,
      "럽": 335,
      "렀": 336,
      "렇": 337,
      "레": 338,
      "렉": 339,
      "렌": 340,
      "렛": 341,
      "려": 342,
      "력": 343,
      "련": 344,
      "렬": 345,
      "렴": 346,
      "렵": 347,
      "렸": 348,
      "령": 349,
      "례": 350,
      "로": 351,
      "록": 352,
      "론": 353,
      "롤": 354,
      "롭": 355,
      "롯": 356,
      "롱": 357,
      "뢰": 358,
      "료": 359,
      "루": 360,
      "룩": 361,
      "룰": 362,
      "룸": 363,
      "룹": 364,
      "류": 365,
      "륙": 366,
      "률": 367,
      "륨": 368,
      "륭": 369,
      "르": 370,
      "른": 371,
      "를": 372,
      "름": 373,
      "릅": 374,
      "릇": 375,
      "리": 376,
      "릭": 377,
      "린": 378,
      "릴": 379,
      "림": 380,
      "립": 381,
      "릿": 382,
      "링": 383,
      "마": 384,
      "막": 385,
      "만": 386,
      "많": 387,
      "말": 388,
      "맙": 389,
      "맛": 390,
      "망": 391,
      "맞": 392,
      "맡": 393,
      "매": 394,
      "맥": 395,
      "맨": 396,
      "맺": 397,
      "머": 398,
      "먹": 399,
      "먼": 400,
      "멀": 401,
      "멈": 402,
      "멋": 403,
      "멍": 404,
      "메": 405,
      "멘": 406,
      "멜": 407,
      "멤": 408,
      "멧": 409,
      "며": 410,
      "면": 411,
      "명": 412,
      "몇": 413,
      "모": 414,
      "목": 415,
      "몬": 416,
      "몰": 417,
      "몸": 418,
      "못": 419,
      "묘": 420,
      "무": 421,
      "묵": 422,
      "묶": 423,
      "문": 424,
      "묻": 425,
      "물": 426,
      "뭐": 427,
      "뭔": 428,
      "뭘": 429,
      "뮤": 430,
      "뮬": 431,
      "므": 432,
      "미": 433,
      "믹": 434,
      "민": 435,
      "믿": 436,
      "밀": 437,
      "밌": 438,
      "밍": 439,
      "및": 440,
      "밑": 441,
      "바": 442,
      "박": 443,
      "밖": 444,
      "반": 445,
      "받": 446,
      "발": 447,
      "밝": 448,
      "밤": 449,
      "밥": 450,
      "방": 451,
      "배": 452,
      "백": 453,
      "밴": 454,
      "밸": 455,
      "뱅": 456,
      "버": 457,
      "번": 458,
      "벌": 459,
      "범": 460,
      "법": 461,
      "벗": 462,
      "베": 463,
      "벤": 464,
      "벨": 465,
      "벳": 466,
      "벼": 467,
      "벽": 468,
      "변": 469,
      "별": 470,
      "볍": 471,
      "병": 472,
      "보": 473,
      "복": 474,
      "볶": 475,
      "본": 476,
      "볼": 477,
      "봅": 478,
      "봇": 479,
      "봉": 480,
      "봐": 481,
      "봤": 482,
      "뵙": 483,
      "부": 484,
      "북": 485,
      "분": 486,
      "불": 487,
      "붐": 488,
      "붕": 489,
      "붙": 490,
      "뷔": 491,
      "뷰": 492,
      "브": 493,
      "븐": 494,
      "블": 495,
      "비": 496,
      "빈": 497,
      "빌": 498,
      "빔": 499,
      "빗": 500,
      "빙": 501,
      "빛": 502,
      "빠": 503,
      "빡": 504,
      "빨": 505,
      "빵": 506,
      "빼": 507,
      "뻐": 508,
      "뻔": 509,
      "뻤": 510,
      "뿌": 511,
      "뿐": 512,
      "쁘": 513,
      "쁜": 514,
      "쁠": 515,
      "쁩": 516,
      "사": 517,
      "삭": 518,
      "산": 519,
      "살": 520,
      "삶": 521,
      "삼": 522,
      "삽": 523,
      "샀": 524,
      "상": 525,
      "새": 526,
      "색": 527,
      "샌": 528,
      "샐": 529,
      "샘": 530,
      "생": 531,
      "샤": 532,
      "샴": 533,
      "섀": 534,
      "서": 535,
      "석": 536,
      "섞": 537,
      "선": 538,
      "설": 539,
      "섬": 540,
      "섭": 541,
      "섯": 542,
      "성": 543,
      "세": 544,
      "섹": 545,
      "센": 546,
      "셀": 547,
      "셋": 548,
      "셔": 549,
      "션": 550,
      "셜": 551,
      "셨": 552,
      "셰": 553,
      "소": 554,
      "속": 555,
      "손": 556,
      "솔": 557,
      "송": 558,
      "솥": 559,
      "쇄": 560,
      "쇠": 561,
      "쇼": 562,
      "숍": 563,
      "수": 564,
      "숙": 565,
      "순": 566,
      "술": 567,
      "숨": 568,
      "숫": 569,
      "숭": 570,
      "쉬": 571,
      "쉽": 572,
      "슈": 573,
      "스": 574,
      "슨": 575,
      "슬": 576,
      "슴": 577,
      "습": 578,
      "슷": 579,
      "승": 580,
      "시": 581,
      "식": 582,
      "신": 583,
      "실": 584,
      "싫": 585,
      "심": 586,
      "십": 587,
      "싱": 588,
      "싶": 589,
      "싸": 590,
      "싼": 591,
      "쌀": 592,
      "쌉": 593,
      "쌍": 594,
      "쌓": 595,
      "써": 596,
      "썹": 597,
      "쎄": 598,
      "쓰": 599,
      "쓸": 600,
      "씀": 601,
      "씁": 602,
      "씨": 603,
      "씩": 604,
      "씬": 605,
      "씹": 606,
      "씻": 607,
      "아": 608,
      "악": 609,
      "안": 610,
      "앉": 611,
      "않": 612,
      "알": 613,
      "암": 614,
      "압": 615,
      "앗": 616,
      "았": 617,
      "앙": 618,
      "앞": 619,
      "애": 620,
      "액": 621,
      "앤": 622,
      "앨": 623,
      "앱": 624,
      "야": 625,
      "약": 626,
      "얇": 627,
      "양": 628,
      "얘": 629,
      "어": 630,
      "억": 631,
      "언": 632,
      "얻": 633,
      "얼": 634,
      "엄": 635,
      "업": 636,
      "없": 637,
      "엇": 638,
      "었": 639,
      "엌": 640,
      "에": 641,
      "엑": 642,
      "엔": 643,
      "엘": 644,
      "여": 645,
      "역": 646,
      "연": 647,
      "열": 648,
      "염": 649,
      "엽": 650,
      "였": 651,
      "영": 652,
      "옆": 653,
      "예": 654,
      "오": 655,
      "옥": 656,
      "온": 657,
      "올": 658,
      "옮": 659,
      "옵": 660,
      "옷": 661,
      "와": 662,
      "완": 663,
      "왔": 664,
      "왕": 665,
      "왜": 666,
      "외": 667,
      "왼": 668,
      "요": 669,
      "욕": 670,
      "용": 671,
      "우": 672,
      "욱": 673,
      "운": 674,
      "울": 675,
      "움": 676,
      "웃": 677,
      "워": 678,
      "원": 679,
      "월": 680,
      "웠": 681,
      "웨": 682,
      "웰": 683,
      "웹": 684,
      "위": 685,
      "윈": 686,
      "유": 687,
      "육": 688,
      "윤": 689,
      "율": 690,
      "융": 691,
      "으": 692,
      "은": 693,
      "을": 694,
      "음": 695,
      "응": 696,
      "의": 697,
      "이": 698,
      "익": 699,
      "인": 700,
      "일": 701,
      "읽": 702,
      "잃": 703,
      "임": 704,
      "입": 705,
      "있": 706,
      "잉": 707,
      "잊": 708,
      "잎": 709,
      "자": 710,
      "작": 711,
      "잔": 712,
      "잖": 713,
      "잘": 714,
      "잠": 715,
      "잡": 716,
      "장": 717,
      "재": 718,
      "쟁": 719,
      "저": 720,
      "적": 721,
      "전": 722,
      "절": 723,
      "젊": 724,
      "점": 725,
      "접": 726,
      "정": 727,
      "젖": 728,
      "제": 729,
      "젝": 730,
      "젠": 731,
      "젤": 732,
      "젯": 733,
      "져": 734,
      "졌": 735,
      "조": 736,
      "족": 737,
      "존": 738,
      "졸": 739,
      "좀": 740,
      "좁": 741,
      "종": 742,
      "좋": 743,
      "좌": 744,
      "죄": 745,
      "죠": 746,
      "주": 747,
      "죽": 748,
      "준": 749,
      "줄": 750,
      "줍": 751,
      "중": 752,
      "줘": 753,
      "줬": 754,
      "즈": 755,
      "즉": 756,
      "즐": 757,
      "즘": 758,
      "증": 759,
      "지": 760,
      "직": 761,
      "진": 762,
      "질": 763,
      "짐": 764,
      "집": 765,
      "짓": 766,
      "징": 767,
      "짜": 768,
      "짝": 769,
      "짧": 770,
      "째": 771,
      "쨌": 772,
      "쪽": 773,
      "쭤": 774,
      "쯤": 775,
      "찌": 776,
      "찍": 777,
      "차": 778,
      "착": 779,
      "찬": 780,
      "찮": 781,
      "찰": 782,
      "참": 783,
      "창": 784,
      "찾": 785,
      "채": 786,
      "책": 787,
      "챙": 788,
      "처": 789,
      "척": 790,
      "천": 791,
      "철": 792,
      "첨": 793,
      "첫": 794,
      "청": 795,
      "체": 796,
      "쳐": 797,
      "쳤": 798,
      "초": 799,
      "촉": 800,
      "촌": 801,
      "총": 802,
      "촬": 803,
      "최": 804,
      "추": 805,
      "축": 806,
      "춘": 807,
      "출": 808,
      "춤": 809,
      "충": 810,
      "춰": 811,
      "취": 812,
      "츠": 813,
      "측": 814,
      "층": 815,
      "치": 816,
      "칙": 817,
      "친": 818,
      "칠": 819,
      "침": 820,
      "칩": 821,
      "칫": 822,
      "칭": 823,
      "카": 824,
      "칸": 825,
      "칼": 826,
      "캐": 827,
      "캔": 828,
      "캘": 829,
      "캠": 830,
      "캡": 831,
      "커": 832,
      "컨": 833,
      "컬": 834,
      "컴": 835,
      "컵": 836,
      "케": 837,
      "켓": 838,
      "켜": 839,
      "켰": 840,
      "코": 841,
      "콘": 842,
      "콜": 843,
      "콤": 844,
      "콩": 845,
      "쾌": 846,
      "쿠": 847,
      "쿨": 848,
      "퀴": 849,
      "큐": 850,
      "크": 851,
      "큰": 852,
      "클": 853,
      "큼": 854,
      "키": 855,
      "킨": 856,
      "킬": 857,
      "킵": 858,
      "킷": 859,
      "킹": 860,
      "타": 861,
      "탁": 862,
      "탄": 863,
      "탈": 864,
      "탐": 865,
      "탑": 866,
      "탕": 867,
      "태": 868,
      "택": 869,
      "탠": 870,
      "탭": 871,
      "탱": 872,
      "터": 873,
      "턴": 874,
      "털": 875,
      "테": 876,
      "텍": 877,
      "텐": 878,
      "텔": 879,
      "템": 880,
      "토": 881,
      "톤": 882,
      "톱": 883,
      "통": 884,
      "퇴": 885,
      "투": 886,
      "튀": 887,
      "튜": 888,
      "튬": 889,
      "트": 890,
      "특": 891,
      "튼": 892,
      "틀": 893,
      "티": 894,
      "틱": 895,
      "틴": 896,
      "틸": 897,
      "팀": 898,
      "팁": 899,
      "팅": 900,
      "파": 901,
      "판": 902,
      "팔": 903,
      "팝": 904,
      "패": 905,
      "팩": 906,
      "팬": 907,
      "퍼": 908,
      "펀": 909,
      "펌": 910,
      "페": 911,
      "펜": 912,
      "펠": 913,
      "펫": 914,
      "펴": 915,
      "편": 916,
      "평": 917,
      "폐": 918,
      "포": 919,
      "폭": 920,
      "폰": 921,
      "폴": 922,
      "폼": 923,
      "표": 924,
      "푸": 925,
      "푹": 926,
      "풀": 927,
      "품": 928,
      "풍": 929,
      "퓨": 930,
      "프": 931,
      "픈": 932,
      "플": 933,
      "피": 934,
      "픽": 935,
      "핀": 936,
      "필": 937,
      "핏": 938,
      "핑": 939,
      "하": 940,
      "학": 941,
      "한": 942,
      "할": 943,
      "함": 944,
      "합": 945,
      "핫": 946,
      "항": 947,
      "해": 948,
      "핵": 949,
      "핸": 950,
      "햄": 951,
      "햇": 952,
      "했": 953,
      "행": 954,
      "향": 955,
      "허": 956,
      "헌": 957,
      "험": 958,
      "헤": 959,
      "헬": 960,
      "혀": 961,
      "혁": 962,
      "현": 963,
      "혈": 964,
      "협": 965,
      "형": 966,
      "혜": 967,
      "호": 968,
      "혹": 969,
      "혼": 970,
      "홀": 971,
      "홈": 972,
      "홍": 973,
      "화": 974,
      "확": 975,
      "환": 976,
      "활": 977,
      "황": 978,
      "회": 979,
      "획": 980,
      "효": 981,
      "후": 982,
      "훈": 983,
      "훌": 984,
      "훨": 985,
      "휘": 986,
      "휠": 987,
      "휴": 988,
      "흐": 989,
      "흔": 990,
      "흘": 991,
      "흠": 992,
      "흡": 993,
      "흥": 994,
      "희": 995,
      "흰": 996,
      "히": 997,
      "힌": 998,
      "힐": 999,
      "힘": 1000,
      "▁.": 1001,
      "▁.\n": 1002,
      "니다": 1003,
      "▁이": 1004,
      "▁는": 1005,
      "▁에": 1006,
      "▁을": 1007,
      "▁하": 1008,
      "▁습": 1009,
      "▁습니다": 1010,
      "▁있": 1011,
      "▁가": 1012,
      "▁,": 1013,
      "▁은": 1014,
      "▁를": 1015,
      "▁어": 1016,
      "▁의": 1017,
      "▁제": 1018,
      "▁고": 1019,
      "▁수": 1020,
      "▁그": 1021,
      "▁합": 1022,
      "▁합니다": 1023,
      "▁한": 1024,
      "▁해": 1025,
      "▁주": 1026,
      "▁저": 1027,
      "▁기": 1028,
      "▁지": 1029,
      "▁사": 1030,
      "▁시": 1031,
      "▁아": 1032,
      "▁입": 1033,
      "▁도": 1034,
      "▁다": 1035,
      "▁할": 1036,
      "▁입니다": 1037,
      "▁으": 1038,
      "▁?": 1039,
      "▁?\n": 1040,
      "▁보": 1041,
      "▁것": 1042,
      "▁어요": 1043,
      "▁제품": 1044,
      "▁세": 1045,
      "▁대": 1046,
      "▁로": 1047,
      "▁들": 1048,
      "▁에서": 1049,
      "▁나": 1050,
      "▁겠": 1051,
      "▁게": 1052,
      "▁으로": 1053,
      "▁되": 1054,
      "BB": 1055,
      "▁면": 1056,
      "▁저희": 1057,
      "▁인": 1058,
      "▁과": 1059,
      "▁전": 1060,
      "▁거": 1061,
      "▁모": 1062,
      "▁드": 1063,
      "▁여": 1064,
      "▁알": 1065,
      "▁적": 1066,
      "▁세요": 1067,
      "▁네": 1068,
      "▁좋": 1069,
      "▁우": 1070,
      "FF": 1071,
      "AA": 1072,
      "▁일": 1073,
      "▁했": 1074,
      "▁만": 1075,
      "▁예": 1076,
      "▁1": 1077,
      "▁안": 1078,
      "▁소": 1079,
      "▁와": 1080,
      "▁우리": 1081,
      "▁었": 1082,
      "▁당": 1083,
      "▁감": 1084,
      "▁않": 1085,
      "▁자": 1086,
      "▁위": 1087,
      "▁정": 1088,
      "▁싶": 1089,
      "▁문": 1090,
      "▁오": 1091,
      "▁부": 1092,
      "▁감사": 1093,
      "▁스": 1094,
      "▁바": 1095,
      "▁귀": 1096,
      "▁비": 1097,
      "▁2": 1098,
      "▁사용": 1099,
      "▁회": 1100,
      "▁요": 1101,
      "▁구": 1102,
      "▁내": 1103,
      "▁마": 1104,
      "▁개": 1105,
      "▁없": 1106,
      "▁더": 1107,
      "▁같": 1108,
      "▁생": 1109,
      "▁필": 1110,
      "▁서": 1111,
      "▁에게": 1112,
      "▁많": 1113,
      "▁BB": 1114,
      "▁BBB": 1115,
      "▁유": 1116,
      "메일": 1117,
      "▁제공": 1118,
      "▁됩": 1119,
      "▁됩니다": 1120,
      "▁공": 1121,
      "▁라": 1122,
      "▁려": 1123,
      "▁매": 1124,
      "▁나요": 1125,
      "▁중": 1126,
      "▁또": 1127,
      "▁신": 1128,
      "▁때": 1129,
      "▁연": 1130,
      "▁배": 1131,
      "▁방": 1132,
      "▁FF": 1133,
      "▁FFF": 1134,
      "▁이메일": 1135,
      "▁필요": 1136,
      "▁AA": 1137,
      "▁관": 1138,
      "▁AAA": 1139,
      "▁상": 1140,
      "▁실": 1141,
      "▁모든": 1142,
      "▁음": 1143,
      "▁최": 1144,
      "▁확": 1145,
      "▁대해": 1146,
      "▁주문": 1147,
      "▁무": 1148,
      "▁계": 1149,
      "▁동": 1150,
      "▁안녕": 1151,
      "▁받": 1152,
      "▁장": 1153,
      "▁해요": 1154,
      "▁선": 1155,
      "▁건": 1156,
      "니까": 1157,
      "▁당신": 1158,
      "▁회사": 1159,
      "▁말": 1160,
      "▁조": 1161,
      "▁아요": 1162,
      "▁위해": 1163,
      "▁죠": 1164,
      "▁한국": 1165,
      "▁귀하": 1166,
      "▁된": 1167,
      "▁려고": 1168,
      "▁야": 1169,
      "▁대한": 1170,
      "▁해야": 1171,
      "▁고객": 1172,
      "▁드리": 1173,
      "00": 1174,
      "▁경": 1175,
      "▁달": 1176,
      "▁다른": 1177,
      "▁소개": 1178,
      "▁물": 1179,
      "▁문의": 1180,
      "▁았": 1181,
      "▁포": 1182,
      "▁셔": 1183,
      "▁가능": 1184,
      "▁원": 1185,
      "▁또한": 1186,
      "▁성": 1187,
      "▁그리": 1188,
      "▁가지": 1189,
      "▁먹": 1190,
      "▁식": 1191,
      "▁예요": 1192,
      "▁그리고": 1193,
      "▁추": 1194,
      "▁함": 1195,
      "▁생각": 1196,
      "▁될": 1197,
      "▁사람": 1198,
      "▁시간": 1199,
      "▁!": 1200,
      "▁!\n": 1201,
      "▁재": 1202,
      "▁알려": 1203,
      "▁작": 1204,
      "▁보내": 1205,
      "▁분": 1206,
      "▁미": 1207,
      "▁3": 1208,
      "▁번": 1209,
      "▁프": 1210,
      "▁결": 1211,
      "▁여기": 1212,
      "▁확인": 1213,
      "▁당사": 1214,
      "▁네요": 1215,
      "▁새": 1216,
      "▁님": 1217,
      "▁파": 1218,
      "▁용": 1219,
      "▁잘": 1220,
      "립니다": 1221,
      "랍니다": 1222,
      "▁찾": 1223,
      "▁바랍니다": 1224,
      "▁그래": 1225,
      "▁피": 1226,
      "▁설": 1227,
      "▁음식": 1228,
      "▁데": 1229,
      "▁업": 1230,
      "▁통": 1231,
      "▁는지": 1232,
      "▁5": 1233,
      "▁두": 1234,
      "▁화": 1235,
      "▁발": 1236,
      "▁따": 1237,
      "▁십": 1238,
      "지만": 1239,
      "까요": 1240,
      "▁그러": 1241,
      "▁걸": 1242,
      "비스": 1243,
      "▁몇": 1244,
      "▁및": 1245,
      "▁어떤": 1246,
      "▁셔서": 1247,
      "▁특": 1248,
      "▁까": 1249,
      "▁처": 1250,
      "▁그것": 1251,
      "▁서비스": 1252,
      "▁문제": 1253,
      "▁만들": 1254,
      "▁정말": 1255,
      "▁그렇": 1256,
      "시오": 1257,
      "▁하지만": 1258,
      "▁가장": 1259,
      "▁디": 1260,
      "▁지만": 1261,
      "▁다음": 1262,
      "▁영": 1263,
      "▁차": 1264,
      "▁으면": 1265,
      "▁집": 1266,
      "▁현": 1267,
      "▁맞": 1268,
      "▁직": 1269,
      "▁까지": 1270,
      "▁드립니다": 1271,
      "▁배송": 1272,
      "▁구매": 1273,
      "▁진": 1274,
      "▁카": 1275,
      "▁판": 1276,
      "▁귀사": 1277,
      "▁에요": 1278,
      "▁라고": 1279,
      "▁매우": 1280,
      "▁연락": 1281,
      "▁함께": 1282,
      "▁단": 1283,
      "▁너": 1284,
      "▁가격": 1285,
      "▁지금": 1286,
      "▁십시오": 1287,
      "▁다고": 1288,
      "▁종": 1289,
      "이트": 1290,
      "▁온": 1291,
      "▁도록": 1292,
      "▁판매": 1293,
      "▁습니까": 1294,
      "▁때문": 1295,
      "가요": 1296,
      "▁손": 1297,
      "▁아니": 1298,
      "▁포함": 1299,
      "▁다양": 1300,
      "▁편": 1301,
      "▁예약": 1302,
      "▁새로": 1303,
      "▁줄": 1304,
      "▁불": 1305,
      "▁후": 1306,
      "▁드릴": 1307,
      "▁약": 1308,
      "▁준": 1309,
      "▁셨": 1310,
      "▁전화": 1311,
      "▁위한": 1312,
      "▁도움": 1313,
      "▁오늘": 1314,
      "▁크": 1315,
      "▁어떻": 1316,
      "▁따라": 1317,
      "▁국": 1318,
      "▁완": 1319,
      "▁달러": 1320,
      "▁이것": 1321,
      "▁동안": 1322,
      "▁항": 1323,
      "▁그래서": 1324,
      "▁하나": 1325,
      "▁얼": 1326,
      "▁반": 1327,
      "▁모두": 1328,
      "▁다시": 1329,
      "▁프로": 1330,
      "▁여행": 1331,
      "▁여러": 1332,
      "▁는데": 1333,
      "▁그런": 1334,
      "▁새로운": 1335,
      "▁길": 1336,
      "▁품": 1337,
      "▁준비": 1338,
      "▁목": 1339,
      "▁언": 1340,
      "▁플": 1341,
      "▁년": 1342,
      "▁참": 1343,
      "▁노": 1344,
      "▁많이": 1345,
      "▁메": 1346,
      "▁시작": 1347,
      "▁추가": 1348,
      "▁선택": 1349,
      "▁운": 1350,
      "▁사업": 1351,
      "▁명": 1352,
      "게요": 1353,
      "▁초": 1354,
      "▁친": 1355,
      "▁호": 1356,
      "▁환": 1357,
      "▁출": 1358,
      "▁투": 1359,
      "▁무엇": 1360,
      "▁간": 1361,
      "▁며": 1362,
      "▁살": 1363,
      "▁맛": 1364,
      "▁정보": 1365,
      "▁4": 1366,
      "▁레": 1367,
      "▁테": 1368,
      "▁사항": 1369,
      "▁강": 1370,
      "▁관심": 1371,
      "▁업체": 1372,
      "▁10": 1373,
      "▁비용": 1374,
      "▁그럼": 1375,
      "▁볼": 1376,
      "▁쉽": 1377,
      "▁브": 1378,
      "▁교": 1379,
      "▁타": 1380,
      "▁치": 1381,
      "▁이미": 1382,
      "▁그러나": 1383,
      "▁디자": 1384,
      "▁날": 1385,
      "▁색": 1386,
      "▁말씀": 1387,
      "▁버": 1388,
      "▁다면": 1389,
      "▁수도": 1390,
      "▁충": 1391,
      "▁이상": 1392,
      "▁도와": 1393,
      "▁요리": 1394,
      "라인": 1395,
      "▁리": 1396,
      "▁너무": 1397,
      "▁돼": 1398,
      "▁표": 1399,
      "▁경우": 1400,
      "▁공급": 1401,
      "▁금": 1402,
      "▁패": 1403,
      "▁아이": 1404,
      "▁해서": 1405,
      "▁얼마": 1406,
      "▁등": 1407,
      "▁점": 1408,
      "▁피부": 1409,
      "▁열": 1410,
      "▁기능": 1411,
      "▁기다": 1412,
      "▁종류": 1413,
      "▁디자인": 1414,
      "▁을까요": 1415,
      "▁온라인": 1416,
      "▁질": 1417,
      "케이": 1418,
      "▁현재": 1419,
      "▁행": 1420,
      "▁사이트": 1421,
      "▁다는": 1422,
      "▁이번": 1423,
      "▁지불": 1424,
      "▁남": 1425,
      "▁먼": 1426,
      "▁응": 1427,
      "▁산": 1428,
      "▁웹": 1429,
      "▁학": 1430,
      "▁방문": 1431,
      "▁통해": 1432,
      "▁니": 1433,
      "▁하고": 1434,
      "▁요청": 1435,
      "세요": 1436,
      "▁보다": 1437,
      "▁높": 1438,
      "▁이제": 1439,
      "▁계획": 1440,
      "▁코": 1441,
      "▁어서": 1442,
      "▁보험": 1443,
      "▁못": 1444,
      "▁변": 1445,
      "▁으시": 1446,
      "▁각": 1447,
      "줍니다": 1448,
      "▁팀": 1449,
      "▁제안": 1450,
      "▁제조": 1451,
      "▁예정": 1452,
      "▁방법": 1453,
      "▁품질": 1454,
      "▁절": 1455,
      "▁좀": 1456,
      "▁빨": 1457,
      "▁올": 1458,
      "▁외": 1459,
      "▁책": 1460,
      "▁엄": 1461,
      "▁항상": 1462,
      "▁본": 1463,
      "▁큰": 1464,
      "▁언제": 1465,
      "▁청": 1466,
      "▁커": 1467,
      "▁겁": 1468,
      "레이": 1469,
      "▁물론": 1470,
      "▁이나": 1471,
      "▁어야": 1472,
      "▁%": 1473,
      "▁트": 1474,
      "▁적합": 1475,
      "▁최대": 1476,
      "▁친구": 1477,
      "스트": 1478,
      "▁기술": 1479,
      "▁공간": 1480,
      "▁최고": 1481,
      "▁걱": 1482,
      "▁바로": 1483,
      "▁휴": 1484,
      "▁아직": 1485,
      "▁걱정": 1486,
      "▁자동": 1487,
      "▁려면": 1488,
      "▁중요": 1489,
      "▁처리": 1490,
      "▁양": 1491,
      "▁평": 1492,
      "▁겁니다": 1493,
      "▁채": 1494,
      "▁유지": 1495,
      "▁갈": 1496,
      "▁거래": 1497,
      "▁곳": 1498,
      "▁즐": 1499,
      "▁활": 1500,
      "▁상품": 1501,
      "▁직원": 1502,
      "▁할인": 1503,
      "▁월": 1504,
      "▁임": 1505,
      "▁안전": 1506,
      "▁접": 1507,
      "▁클": 1508,
      "▁줍니다": 1509,
      "▁투자": 1510,
      "동산": 1511,
      "▁도매": 1512,
      "▁부동산": 1513,
      "▁답": 1514,
      "▁왔": 1515,
      "▁세계": 1516,
      "▁든": 1517,
      "▁진행": 1518,
      "▁취": 1519,
      "▁사실": 1520,
      "▁일부": 1521,
      "000": 1522,
      "▁먼저": 1523,
      "▁효": 1524,
      "▁향": 1525,
      "▁한다": 1526,
      "▁괜": 1527,
      "▁괜찮": 1528,
      "▁구입": 1529,
      "랜드": 1530,
      "▁부터": 1531,
      "▁하루": 1532,
      "▁회의": 1533,
      "▁관리": 1534,
      "▁머": 1535,
      "니스": 1536,
      "▁사무": 1537,
      "▁이용": 1538,
      "▁제작": 1539,
      "▁시장": 1540,
      "▁도착": 1541,
      "▁잠": 1542,
      "▁시스": 1543,
      "▁빠": 1544,
      "▁자세": 1545,
      "▁던": 1546,
      "▁시스템": 1547,
      "▁돈": 1548,
      "▁작업": 1549,
      "▁건강": 1550,
      "▁결제": 1551,
      "▁여러분": 1552,
      "▁빨리": 1553,
      "▁체": 1554,
      "▁6": 1555,
      "▁검": 1556,
      "▁보호": 1557,
      "▁비즈": 1558,
      "▁색상": 1559,
      "▁광": 1560,
      "▁케이": 1561,
      "▁추천": 1562,
      "▁비즈니스": 1563,
      "전히": 1564,
      "▁고자": 1565,
      "▁해외": 1566,
      "▁기계": 1567,
      "▁20": 1568,
      "▁게임": 1569,
      "▁근": 1570,
      "▁누": 1571,
      "▁이유": 1572,
      "▁사이": 1573,
      "▁박": 1574,
      "▁사진": 1575,
      "▁동물": 1576,
      "▁인가요": 1577,
      "▁또는": 1578,
      "▁장비": 1579,
      "▁경험": 1580,
      "▁가져": 1581,
      "▁설명": 1582,
      "▁호텔": 1583,
      "▁담": 1584,
      "▁페": 1585,
      "▁브랜드": 1586,
      "▁어디": 1587,
      "▁베": 1588,
      "▁형": 1589,
      "메라": 1590,
      "▁따라서": 1591,
      "▁침": 1592,
      "▁협": 1593,
      "부분": 1594,
      "▁지난": 1595,
      "▁카메라": 1596,
      "▁000": 1597,
      "▁지역": 1598,
      "▁대부분": 1599,
      "▁일반": 1600,
      "▁특별": 1601,
      "▁관련": 1602,
      "▁돼요": 1603,
      "▁개발": 1604,
      "▁출시": 1605,
      "▁질문": 1606,
      "▁구성": 1607,
      "▁돌": 1608,
      "▁견": 1609,
      "▁으신": 1610,
      "▁전문": 1611,
      "▁정도": 1612,
      "▁께": 1613,
      "▁이름": 1614,
      "▁편안": 1615,
      "▁기다리": 1616,
      "▁곧": 1617,
      "▁12": 1618,
      "▁생산": 1619,
      "▁얼마나": 1620,
      "▁느": 1621,
      "▁속": 1622,
      "▁거기": 1623,
      "▁모델": 1624,
      "▁계약": 1625,
      "▁행사": 1626,
      "▁첫": 1627,
      "▁총": 1628,
      "▁부드": 1629,
      "▁결정": 1630,
      "▁증": 1631,
      "▁이야": 1632,
      "▁식품": 1633,
      "▁이해": 1634,
      "▁이야기": 1635,
      "▁째": 1636,
      "▁장치": 1637,
      "▁토": 1638,
      "▁모르": 1639,
      "▁8": 1640,
      "▁식사": 1641,
      "▁국제": 1642,
      "▁죄": 1643,
      "▁기대": 1644,
      "▁프로젝": 1645,
      "▁7": 1646,
      "▁얻": 1647,
      "▁사고": 1648,
      "▁농": 1649,
      "▁최근": 1650,
      "▁작동": 1651,
      "▁블": 1652,
      "▁티": 1653,
      "▁기업": 1654,
      "▁논": 1655,
      "▁음료": 1656,
      "▁처음": 1657,
      "▁죄송": 1658,
      "▁갖": 1659,
      "▁였": 1660,
      "▁가게": 1661,
      "▁사무실": 1662,
      "▁프로젝트": 1663,
      "▁복": 1664,
      "디어": 1665,
      "▁지원": 1666,
      "▁세트": 1667,
      "▁오래": 1668,
      "▁태": 1669,
      "부터": 1670,
      "▁가요": 1671,
      "▁거든": 1672,
      "▁휴대": 1673,
      "▁애": 1674,
      "▁컴": 1675,
      "▁이러": 1676,
      "▁끝": 1677,
      "▁잡": 1678,
      "▁그녀": 1679,
      "▁글": 1680,
      "▁아파": 1681,
      "▁보증": 1682,
      "▁재료": 1683,
      "▁직접": 1684,
      "▁둘": 1685,
      "▁컨": 1686,
      "▁스타": 1687,
      "▁놀": 1688,
      "군요": 1689,
      "마트": 1690,
      "▁가족": 1691,
      "▁스마트": 1692,
      "▁답변": 1693,
      "▁심": 1694,
      "▁전체": 1695,
      "▁넣": 1696,
      "▁역": 1697,
      "▁천": 1698,
      "라이": 1699,
      "▁이런": 1700,
      "▁인지": 1701,
      "▁연결": 1702,
      "▁크기": 1703,
      "▁규": 1704,
      "▁창": 1705,
      "▁콘": 1706,
      "▁최신": 1707,
      "▁포장": 1708,
      "▁파트": 1709,
      "▁목록": 1710,
      "▁아파트": 1711,
      "▁왜": 1712,
      "▁아침": 1713,
      "▁독": 1714,
      "▁첨": 1715,
      "디오": 1716,
      "▁보고": 1717,
      "▁그런데": 1718,
      "▁자동차": 1719,
      "▁파트너": 1720,
      "러운": 1721,
      "▁15": 1722,
      "▁요구": 1723,
      "▁레스": 1724,
      "▁난": 1725,
      "▁봐": 1726,
      "▁해당": 1727,
      "▁인터": 1728,
      "▁계속": 1729,
      "▁참석": 1730,
      "▁병": 1731,
      "▁보장": 1732,
      "▁거의": 1733,
      "▁믿": 1734,
      "▁별": 1735,
      "▁키": 1736,
      "▁팔": 1737,
      "▁엄마": 1738,
      "▁그냥": 1739,
      "▁보관": 1740,
      "▁위치": 1741,
      "▁C": 1742,
      "▁엔": 1743,
      "▁허": 1744,
      "▁매장": 1745,
      "▁메일": 1746,
      "▁권": 1747,
      "▁헤": 1748,
      "▁저렴": 1749,
      "▁내용": 1750,
      "▁거나": 1751,
      "▁드릴게요": 1752,
      "▁완벽": 1753,
      "▁옵": 1754,
      "▁보여": 1755,
      "▁여전히": 1756,
      "▁즉": 1757,
      "▁씨": 1758,
      "요일": 1759,
      "토랑": 1760,
      "▁저녁": 1761,
      "▁비행": 1762,
      "▁레스토랑": 1763,
      "▁카드": 1764,
      "▁몰": 1765,
      "▁대량": 1766,
      "▁적용": 1767,
      "▁셔야": 1768,
      "▁효과": 1769,
      "▁논의": 1770,
      "스크": 1771,
      "▁한테": 1772,
      "▁시설": 1773,
      "▁궁": 1774,
      "▁숙": 1775,
      "▁그게": 1776,
      "▁해결": 1777,
      "▁선생": 1778,
      "▁테이": 1779,
      "▁임대": 1780,
      "▁됐": 1781,
      "▁봤": 1782,
      "스틱": 1783,
      "▁100": 1784,
      "▁마음": 1785,
      "▁유명": 1786,
      "▁액": 1787,
      "▁건물": 1788,
      "▁러": 1789,
      "▁전기": 1790,
      "▁부분": 1791,
      "▁뭐": 1792,
      "▁앞": 1793,
      "▁세부": 1794,
      "▁일정": 1795,
      "▁유형": 1796,
      "▁장소": 1797,
      "▁번호": 1798,
      "▁충분": 1799,
      "▁광고": 1800,
      "▁인기": 1801,
      "▁마세요": 1802,
      "▁개인": 1803,
      "▁쓰": 1804,
      "▁은데": 1805,
      "▁상황": 1806,
      "▁50": 1807,
      "▁국가": 1808,
      "▁도시": 1809,
      "▁할게요": 1810,
      "▁대출": 1811,
      "▁무료": 1812,
      "▁설치": 1813,
      "▁멋": 1814,
      "▁내일": 1815,
      "▁쉬": 1816,
      "▁앱": 1817,
      "▁나라": 1818,
      "▁정확": 1819,
      "▁쇼": 1820,
      "이크": 1821,
      "이터": 1822,
      "지막": 1823,
      "▁고려": 1824,
      "▁아주": 1825,
      "▁보통": 1826,
      "▁들어": 1827,
      "▁마지막": 1828,
      "▁라는": 1829,
      "▁조금": 1830,
      "▁아니요": 1831,
      "▁금액": 1832,
      "▁옵션": 1833,
      "▁그건": 1834,
      "▁긴": 1835,
      "프트": 1836,
      "▁30": 1837,
      "▁변경": 1838,
      "▁뛰": 1839,
      "고기": 1840,
      "▁처럼": 1841,
      "▁졌": 1842,
      "▁과정": 1843,
      "▁건가요": 1844,
      "▁물건": 1845,
      "▁맛있": 1846,
      "▁순": 1847,
      "▁어려": 1848,
      "▁특정": 1849,
      "▁9": 1850,
      "이지": 1851,
      "▁스타일": 1852,
      "▁궁금": 1853,
      "▁\"": 1854,
      "▁뿐": 1855,
      "▁줘": 1856,
      "쁩니다": 1857,
      "▁아야": 1858,
      "▁자신": 1859,
      "▁관한": 1860,
      "▁노력": 1861,
      "▁든지": 1862,
      "▁첨부": 1863,
      "▁드렸": 1864,
      "▁설계": 1865,
      "▁링": 1866,
      "▁백": 1867,
      "▁잖": 1868,
      "▁축": 1869,
      "키지": 1870,
      "▁은행": 1871,
      "▁기쁩니다": 1872,
      "▁발생": 1873,
      "▁밀": 1874,
      "▁승": 1875,
      "▁군요": 1876,
      "터리": 1877,
      "▁이전": 1878,
      "▁아마": 1879,
      "▁패키지": 1880,
      "▁읽": 1881,
      "▁혼": 1882,
      "▁니까": 1883,
      "▁확실": 1884,
      "▁재고": 1885,
      "▁특히": 1886,
      "▁플라": 1887,
      "▁거든요": 1888,
      "▁과일": 1889,
      "▁스트": 1890,
      "▁놓": 1891,
      "리스": 1892,
      "▁제거": 1893,
      "▁기타": 1894,
      "▁스테": 1895,
      "▁없이": 1896,
      "▁방지": 1897,
      "릅니다": 1898,
      "이스": 1899,
      "▁이렇": 1900,
      "▁소매": 1901,
      "▁최소": 1902,
      "▁입니까": 1903,
      "▁보안": 1904,
      "▁대신": 1905,
      "▁서울": 1906,
      "▁실제": 1907,
      "▁빌": 1908,
      "▁훌": 1909,
      "▁가방": 1910,
      "▁기간": 1911,
      "▁다이": 1912,
      "▁만드": 1913,
      "▁화장": 1914,
      "▁뛰어": 1915,
      "▁훌륭": 1916,
      "▁샘": 1917,
      "▁배터리": 1918,
      "▁약간": 1919,
      "▁자세히": 1920,
      "▁이렇게": 1921,
      "▁법": 1922,
      "웨어": 1923,
      "▁주소": 1924,
      "▁기에": 1925,
      "▁로부터": 1926,
      "▁소프트": 1927,
      "▁마다": 1928,
      "▁확신": 1929,
      "▁학생": 1930,
      "▁랑": 1931,
      "▁밤": 1932,
      "▁기회": 1933,
      "▁면서": 1934,
      "▁상태": 1935,
      "▁환불": 1936,
      "▁팬": 1937,
      "시아": 1938,
      "▁지속": 1939,
      "▁돌아": 1940,
      "▁컴퓨": 1941,
      "▁플라스틱": 1942,
      "▁샘플": 1943,
      "▁냉": 1944,
      "▁으세요": 1945,
      "▁부탁": 1946,
      "▁될까요": 1947,
      "▁파티": 1948,
      "▁메뉴": 1949,
      "▁운영": 1950,
      "그램": 1951,
      "▁노트": 1952,
      "▁테이블": 1953,
      "▁캐": 1954,
      "▁팩": 1955,
      "▁요금": 1956,
      "▁개월": 1957,
      "▁영화": 1958,
      "▁목적": 1959,
      "▁산업": 1960,
      "▁사이즈": 1961,
      "▁비행기": 1962,
      "▁컴퓨터": 1963,
      "▁-": 1964,
      "▁눈": 1965,
      "▁잔": 1966,
      "▁회신": 1967,
      "▁성분": 1968,
      "▁인터넷": 1969,
      "▁녹": 1970,
      "▁송": 1971,
      "▁캠": 1972,
      "레스": 1973,
      "▁상자": 1974,
      "▁대해서": 1975,
      "▁한다고": 1976,
      "대로": 1977,
      "▁위험": 1978,
      "▁매일": 1979,
      "▁식당": 1980,
      "▁센": 1981,
      "▁측": 1982,
      "벤트": 1983,
      "▁환영": 1984,
      "다고": 1985,
      "므로": 1986,
      "▁시키": 1987,
      "▁만나": 1988,
      "▁소식": 1989,
      "▁환경": 1990,
      "▁날짜": 1991,
      "▁취소": 1992,
      "▁렌": 1993,
      "▁워": 1994,
      "▁풍": 1995,
      "▁이벤트": 1996,
      "▁같이": 1997,
      "▁특징": 1998,
      "다면": 1999,
      "▁기억": 2000,
      "▁연구": 2001,
      "▁손님": 2002,
      "▁소프트웨어": 2003,
      "▁가구": 2004,
      "▁고급": 2005,
      "▁확장": 2006,
      "▁플랫": 2007,
      "▁운전": 2008,
      "▁~": 2009,
      "▁옷": 2010,
      "▁전자": 2011,
      "▁는데요": 2012,
      "▁교체": 2013,
      "▁충전": 2014,
      "▁활동": 2015,
      "▁수영": 2016,
      "▁기기": 2017,
      "▁대표": 2018,
      "▁오후": 2019,
      "▁바라": 2020,
      "▁용품": 2021,
      "▁집니다": 2022,
      "▁완료": 2023,
      "▁즉시": 2024,
      "▁솔": 2025,
      "데이트": 2026,
      "▁무슨": 2027,
      "▁데이터": 2028,
      "▁업데이트": 2029,
      "▁청소": 2030,
      "▁수입": 2031,
      "▁수출": 2032,
      "▁서류": 2033,
      "▁반려": 2034,
      "▁티켓": 2035,
      "▁쿠": 2036,
      "시지": 2037,
      "▁가치": 2038,
      "▁청구": 2039,
      "▁커피": 2040,
      "TV": 2041,
      "▁듣": 2042,
      "▁밖": 2043,
      "▁압": 2044,
      "▁탄": 2045,
      "듭니다": 2046,
      "▁주택": 2047,
      "▁아무": 2048,
      "▁전통": 2049,
      "▁소재": 2050,
      "▁자리": 2051,
      "▁신청": 2052,
      "▁낮": 2053,
      "▁흥": 2054,
      "냅니다": 2055,
      "▁수업": 2056,
      "▁다행": 2057,
      "▁만든": 2058,
      "▁크림": 2059,
      "▁항공": 2060,
      "▁빠른": 2061,
      "▁부드럽": 2062,
      "▁노트북": 2063,
      "▁꼭": 2064,
      "▁착": 2065,
      "▁스럽": 2066,
      "▁초대": 2067,
      "▁활용": 2068,
      "▁빠르": 2069,
      "▁근처": 2070,
      "▁담당": 2071,
      "▁몸": 2072,
      "▁니다": 2073,
      "닙니다": 2074,
      "▁어린": 2075,
      "▁고기": 2076,
      "▁해도": 2077,
      "▁기본": 2078,
      "▁드려": 2079,
      "▁관광": 2080,
      "▁미국": 2081,
      "▁설정": 2082,
      "▁등록": 2083,
      "▁외국": 2084,
      "▁쇼핑": 2085,
      "▁객": 2086,
      "▁잊": 2087,
      "이션": 2088,
      "▁이동": 2089,
      "▁고요": 2090,
      "▁아서": 2091,
      "▁일어": 2092,
      "▁25": 2093,
      "▁라면": 2094,
      "▁계정": 2095,
      "▁프로그램": 2096,
      "▁침대": 2097,
      "▁확실히": 2098,
      "▁A": 2099,
      "▁폼": 2100,
      "▁어울": 2101,
      "▁그곳": 2102,
      "▁지연": 2103,
      "▁방식": 2104,
      "▁결과": 2105,
      "▁영업": 2106,
      "▁터": 2107,
      "▁홍": 2108,
      "▁주식": 2109,
      "▁아닙니다": 2110,
      "▁내부": 2111,
      "▁선물": 2112,
      "▁차량": 2113,
      "▁메시지": 2114,
      "▁액세": 2115,
      "▁탈": 2116,
      "▁그걸": 2117,
      "▁보이": 2118,
      "▁헤드": 2119,
      "▁범": 2120,
      "너지": 2121,
      "▁대로": 2122,
      "▁나중": 2123,
      "▁예상": 2124,
      "▁무게": 2125,
      "▁영향": 2126,
      "▁테스트": 2127,
      "▁갔": 2128,
      "지털": 2129,
      "▁가까": 2130,
      "▁으니": 2131,
      "▁문서": 2132,
      "▁선호": 2133,
      "▁디지털": 2134,
      "▁단계": 2135,
      "▁편리": 2136,
      "▁기다려": 2137,
      "▁엄청": 2138,
      "▁잖아": 2139,
      "▁막": 2140,
      "▁염": 2141,
      "▁컬": 2142,
      "▁힘": 2143,
      "동안": 2144,
      "이드": 2145,
      "▁에너지": 2146,
      "▁어느": 2147,
      "▁제한": 2148,
      "▁오일": 2149,
      "▁음악": 2150,
      "▁건조": 2151,
      "▁그래도": 2152,
      "▁500": 2153,
      "▁간단": 2154,
      "▁표시": 2155,
      "▁협력": 2156,
      "▁속도": 2157,
      "▁m": 2158,
      "▁벌": 2159,
      "▁홈": 2160,
      "스터": 2161,
      "▁이곳": 2162,
      "▁의료": 2163,
      "▁신발": 2164,
      "▁신선": 2165,
      "▁위해서": 2166,
      "▁그러면": 2167,
      "▁잠시": 2168,
      "▁께서": 2169,
      "▁꽤": 2170,
      "▁떨": 2171,
      "▁악": 2172,
      "▁혹": 2173,
      "▁함유": 2174,
      "▁통화": 2175,
      "▁버스": 2176,
      "▁섬": 2177,
      "▁슬": 2178,
      "▁칼": 2179,
      "▁어제": 2180,
      "▁아래": 2181,
      "▁11": 2182,
      "▁비디오": 2183,
      "▁내구": 2184,
      "▁마시": 2185,
      "▁더라": 2186,
      "▁조건": 2187,
      "▁성장": 2188,
      "▁발전": 2189,
      "▁절차": 2190,
      "▁채식": 2191,
      "▁객실": 2192,
      "▁골": 2193,
      "▁깨": 2194,
      "▁냄": 2195,
      "▁봉": 2196,
      "▁으실": 2197,
      "▁대학": 2198,
      "▁만족": 2199,
      "▁문화": 2200,
      "▁동의": 2201,
      "▁품목": 2202,
      "케이션": 2203,
      "▁멋진": 2204,
      "▁k": 2205,
      "▁롭": 2206,
      "▁층": 2207,
      "다는": 2208,
      "▁인치": 2209,
      "▁전달": 2210,
      "▁안내": 2211,
      "▁요즘": 2212,
      "▁유통": 2213,
      "▁공유": 2214,
      "▁라인": 2215,
      "▁평가": 2216,
      "▁닭": 2217,
      "▁훨": 2218,
      "거운": 2219,
      "▁주요": 2220,
      "▁소비": 2221,
      "▁미리": 2222,
      "레이드": 2223,
      "▁훨씬": 2224,
      "▁넓": 2225,
      "▁넘": 2226,
      "▁익": 2227,
      "리아": 2228,
      "▁조절": 2229,
      "▁성능": 2230,
      "▁분야": 2231,
      "▁참여": 2232,
      "▁효율": 2233,
      "▁부드러운": 2234,
      "▁놀라": 2235,
      "▁화장품": 2236,
      "▁뒤": 2237,
      "▁잃": 2238,
      "케팅": 2239,
      "▁의사": 2240,
      "▁사랑": 2241,
      "▁마케팅": 2242,
      "▁성공": 2243,
      "▁작성": 2244,
      "▁연락처": 2245,
      "▁학교": 2246,
      "▁전문가": 2247,
      "▁얘": 2248,
      "▁찍": 2249,
      "▁인해": 2250,
      "▁200": 2251,
      "▁마스크": 2252,
      "▁미디어": 2253,
      "▁그렇게": 2254,
      "▁떨어": 2255,
      "▁꽃": 2256,
      "▁암": 2257,
      "리핀": 2258,
      "▁이내": 2259,
      "▁수익": 2260,
      "▁오신": 2261,
      "▁구독": 2262,
      "▁필리핀": 2263,
      "▁배달": 2264,
      "▁교육": 2265,
      "▁김": 2266,
      "우스": 2267,
      "▁수행": 2268,
      "▁사과": 2269,
      "▁인도": 2270,
      "▁전혀": 2271,
      "▁신뢰": 2272,
      "▁조정": 2273,
      "▁프레": 2274,
      "▁국내": 2275,
      "▁치즈": 2276,
      "▁최대한": 2277,
      "▁즐기": 2278,
      "▁숙박": 2279,
      "▁실제로": 2280,
      "▁c": 2281,
      "▁혜": 2282,
      "▁합니까": 2283,
      "▁기반": 2284,
      "▁아름": 2285,
      "▁인데": 2286,
      "▁인상": 2287,
      "▁예산": 2288,
      "▁부품": 2289,
      "▁물질": 2290,
      "▁재미": 2291,
      "▁결혼": 2292,
      "▁편의": 2293,
      "▁투어": 2294,
      "▁케이스": 2295,
      "▁페이지": 2296,
      "▁휴대폰": 2297,
      "▁혜택": 2298,
      "▁류": 2299,
      "▁멀": 2300,
      "▁수분": 2301,
      "▁지내": 2302,
      "▁모발": 2303,
      "▁목표": 2304,
      "▁머리": 2305,
      "▁태양": 2306,
      "▁얘기": 2307,
      "▁밝": 2308,
      "▁져": 2309,
      "▁택": 2310,
      "로그": 2311,
      "▁의미": 2312,
      "▁제대로": 2313,
      "▁시도": 2314,
      "▁우선": 2315,
      "▁계산": 2316,
      "▁식물": 2317,
      "▁분명": 2318,
      "▁책임": 2319,
      "▁도매가": 2320,
      "▁증가": 2321,
      "콜릿": 2322,
      "▁주방": 2323,
      "▁으며": 2324,
      "▁보낼": 2325,
      "▁여성": 2326,
      "▁필수": 2327,
      "▁매니": 2328,
      "▁파일": 2329,
      "▁화학": 2330,
      "▁초콜릿": 2331,
      "▁아이디어": 2332,
      "▁높이": 2333,
      "▁향상": 2334,
      "▁박람": 2335,
      "▁파트너십": 2336,
      "▁뛰어난": 2337,
      "▁뭔": 2338,
      "▁핸": 2339,
      "십시오": 2340,
      "▁가입": 2341,
      "▁주로": 2342,
      "▁할지": 2343,
      "▁만큼": 2344,
      "▁부족": 2345,
      "▁배우": 2346,
      "▁물품": 2347,
      "▁운동": 2348,
      "▁한다는": 2349,
      "▁박람회": 2350,
      "▁돕": 2351,
      "▁떠": 2352,
      "거리": 2353,
      "릴까요": 2354,
      "▁가죽": 2355,
      "▁지요": 2356,
      "▁만듭니다": 2357,
      "▁자연": 2358,
      "▁자체": 2359,
      "▁영양": 2360,
      "▁손상": 2361,
      "▁완전히": 2362,
      "▁표준": 2363,
      "▁접근": 2364,
      "▁냄새": 2365,
      "▁흡": 2366,
      "리미": 2367,
      "▁이랑": 2368,
      "▁가상": 2369,
      "▁수수": 2370,
      "▁드라이": 2371,
      "▁일주": 2372,
      "▁안정": 2373,
      "▁소유": 2374,
      "▁필터": 2375,
      "▁신가요": 2376,
      "▁계좌": 2377,
      "▁조사": 2378,
      "▁발송": 2379,
      "▁독특": 2380,
      "▁홍보": 2381,
      "▁폴": 2382,
      "산물": 2383,
      "▁주실": 2384,
      "▁여쭤": 2385,
      "▁적절": 2386,
      "▁자랑": 2387,
      "▁야채": 2388,
      "▁얼굴": 2389,
      "▁검사": 2390,
      "▁몰랐": 2391,
      "▁흥미": 2392,
      "▁수수료": 2393,
      "▁일주일": 2394,
      "▁G": 2395,
      "▁앉": 2396,
      "▁주말": 2397,
      "▁다니": 2398,
      "▁알아": 2399,
      "▁결국": 2400,
      "▁진정": 2401,
      "▁40": 2402,
      "▁커버": 2403,
      "▁승인": 2404,
      "▁스테인": 2405,
      "▁S": 2406,
      "▁깊": 2407,
      "▁빵": 2408,
      "랫동안": 2409,
      "미나": 2410,
      "서리": 2411,
      "▁지하": 2412,
      "▁거리": 2413,
      "▁소스": 2414,
      "▁오랫동안": 2415,
      "▁공원": 2416,
      "▁발견": 2417,
      "▁애플": 2418,
      "▁천연": 2419,
      "▁렌즈": 2420,
      "▁cm": 2421,
      "▁급": 2422,
      "▁탑": 2423,
      "▁므로": 2424,
      "리케이션": 2425,
      "입니다": 2426,
      "▁의자": 2427,
      "▁시계": 2428,
      "▁시켜": 2429,
      "▁세탁": 2430,
      "▁세미나": 2431,
      "▁소셜": 2432,
      "▁스틸": 2433,
      "▁구조": 2434,
      "▁유리": 2435,
      "▁불만": 2436,
      "▁점심": 2437,
      "▁역할": 2438,
      "▁매니저": 2439,
      "머니": 2440,
      "타민": 2441,
      "▁주변": 2442,
      "▁다릅니다": 2443,
      "▁일본": 2444,
      "▁300": 2445,
      "▁현지": 2446,
      "▁약속": 2447,
      "▁언어": 2448,
      "▁호환": 2449,
      "▁며칠": 2450,
      "▁남성": 2451,
      "▁케이크": 2452,
      "▁특별히": 2453,
      "▁어린이": 2454,
      "▁kg": 2455,
      "▁겨": 2456,
      "▁늘": 2457,
      "▁딸": 2458,
      "▁밥": 2459,
      "▁욕": 2460,
      "쨌든": 2461,
      "▁어쨌든": 2462,
      "▁보유": 2463,
      "▁나무": 2464,
      "▁부서": 2465,
      "▁비싸": 2466,
      "▁생활": 2467,
      "▁공식": 2468,
      "▁라이": 2469,
      "▁십니까": 2470,
      "▁다시피": 2471,
      "▁근데": 2472,
      "▁침실": 2473,
      "▁창고": 2474,
      "▁혹시": 2475,
      "▁애플리케이션": 2476,
      "▁납": 2477,
      "▁룸": 2478,
      "▁망": 2479,
      "▁민": 2480,
      "▁샀": 2481,
      "드릴까요": 2482,
      "▁가공": 2483,
      "▁어도": 2484,
      "▁수량": 2485,
      "▁수정": 2486,
      "▁기뻐": 2487,
      "▁우유": 2488,
      "▁만한": 2489,
      "▁비타민": 2490,
      "▁내장": 2491,
      "▁계신": 2492,
      "▁조명": 2493,
      "▁걸리": 2494,
      "▁불편": 2495,
      "▁검토": 2496,
      "▁글쎄": 2497,
      "▁착용": 2498,
      "▁갑": 2499,
      "▁딱": 2500,
      "▁섭": 2501,
      "▁술": 2502,
      "▁싱": 2503,
      "텐츠": 2504,
      "▁수용": 2505,
      "▁수준": 2506,
      "▁저장": 2507,
      "▁기존": 2508,
      "▁사본": 2509,
      "▁도구": 2510,
      "▁대단": 2511,
      "▁로서": 2512,
      "▁인쇄": 2513,
      "▁개선": 2514,
      "▁방금": 2515,
      "▁상점": 2516,
      "▁장식": 2517,
      "▁장점": 2518,
      "▁잘못": 2519,
      "▁업무": 2520,
      "▁맞춤": 2521,
      "▁간식": 2522,
      "▁도와드릴까요": 2523,
      "▁올해": 2524,
      "▁병원": 2525,
      "▁센터": 2526,
      "▁담당자": 2527,
      "▁뉴": 2528,
      "▁샴": 2529,
      "▁쓸": 2530,
      "조트": 2531,
      "포츠": 2532,
      "▁이후": 2533,
      "▁제출": 2534,
      "▁기록": 2535,
      "▁보상": 2536,
      "▁와인": 2537,
      "▁스포츠": 2538,
      "▁바닥": 2539,
      "▁24": 2540,
      "▁공항": 2541,
      "▁실수": 2542,
      "▁최선": 2543,
      "▁장착": 2544,
      "▁식단": 2545,
      "▁발표": 2546,
      "▁따르": 2547,
      "▁치킨": 2548,
      "▁리조트": 2549,
      "▁절약": 2550,
      "▁베이": 2551,
      "▁냉장": 2552,
      "▁가까운": 2553,
      "▁B": 2554,
      "▁I": 2555,
      "▁x": 2556,
      "▁뭘": 2557,
      "▁뵙": 2558,
      "다가": 2559,
      "봐도": 2560,
      "아지": 2561,
      "▁이게": 2562,
      "▁이익": 2563,
      "▁기준": 2564,
      "▁지점": 2565,
      "▁보냅니다": 2566,
      "▁게다가": 2567,
      "▁전시": 2568,
      "▁정부": 2569,
      "▁공기": 2570,
      "▁공장": 2571,
      "▁매트": 2572,
      "▁종이": 2573,
      "▁출장": 2574,
      "▁살펴": 2575,
      "▁표면": 2576,
      "▁케이블": 2577,
      "▁느낌": 2578,
      "▁콘텐츠": 2579,
      "▁풍부": 2580,
      "▁스테인리스": 2581,
      "주의": 2582,
      "페인": 2583,
      "▁그림": 2584,
      "▁그쪽": 2585,
      "▁한지": 2586,
      "▁해변": 2587,
      "▁인증": 2588,
      "▁신용": 2589,
      "▁추출": 2590,
      "▁미래": 2591,
      "▁프린": 2592,
      "▁프로세": 2593,
      "▁메모": 2594,
      "▁강아지": 2595,
      "▁타이": 2596,
      "▁누구": 2597,
      "▁123": 2598,
      "▁키트": 2599,
      "▁P": 2600,
      "▁V": 2601,
      "▁싫": 2602,
      "▁희": 2603,
      "그레이드": 2604,
      "운드": 2605,
      "▁주일": 2606,
      "▁다가": 2607,
      "▁네트": 2608,
      "▁정리": 2609,
      "▁상업": 2610,
      "▁업그레이드": 2611,
      "▁강력": 2612,
      "▁은데요": 2613,
      "▁섬유": 2614,
      "▁냉장고": 2615,
      "▁삼": 2616,
      "▁탁": 2617,
      "▁흰": 2618,
      "십니까": 2619,
      "잡이": 2620,
      "테이션": 2621,
      "▁이건": 2622,
      "▁에어": 2623,
      "▁가볍": 2624,
      "▁주스": 2625,
      "▁시트": 2626,
      "▁으로부터": 2627,
      "▁더욱": 2628,
      "▁중국": 2629,
      "▁동료": 2630,
      "▁파스": 2631,
      "▁현금": 2632,
      "▁버전": 2633,
      "▁갖추": 2634,
      "▁CC": 2635,
      "▁링크": 2636,
      "▁혼자": 2637,
      "▁범위": 2638,
      "▁김치": 2639,
      "▁균": 2640,
      "▁풀": 2641,
      "▁이루": 2642,
      "▁어렵": 2643,
      "▁고무": 2644,
      "▁안심": 2645,
      "▁마이크": 2646,
      "▁려는": 2647,
      "▁관해": 2648,
      "▁조치": 2649,
      "▁경쟁": 2650,
      "▁셔도": 2651,
      "▁미팅": 2652,
      "▁용기": 2653,
      "▁용량": 2654,
      "▁현대": 2655,
      "▁진심": 2656,
      "▁온도": 2657,
      "▁완전": 2658,
      "▁머물": 2659,
      "▁견적": 2660,
      "▁허용": 2661,
      "▁액세서리": 2662,
      "▁결혼식": 2663,
      "▁L": 2664,
      "▁늦": 2665,
      "▁벽": 2666,
      "▁짐": 2667,
      "라우": 2668,
      "렉션": 2669,
      "바일": 2670,
      "이너": 2671,
      "저트": 2672,
      "▁그룹": 2673,
      "▁시험": 2674,
      "▁아닌": 2675,
      "▁모바일": 2676,
      "▁스키": 2677,
      "▁스러운": 2678,
      "▁서명": 2679,
      "▁공학": 2680,
      "▁조리": 2681,
      "▁경제": 2682,
      "▁디저트": 2683,
      "▁영상": 2684,
      "▁차이": 2685,
      "▁간편": 2686,
      "▁버튼": 2687,
      "▁본사": 2688,
      "▁트럭": 2689,
      "▁접시": 2690,
      "▁농장": 2691,
      "▁다이빙": 2692,
      "▁외국인": 2693,
      "▁악기": 2694,
      "▁아름다": 2695,
      "▁샴푸": 2696,
      "▁덕": 2697,
      "▁듯": 2698,
      "▁립": 2699,
      "▁쌀": 2700,
      "▁옆": 2701,
      "▁짧": 2702,
      "▁철": 2703,
      "▁컵": 2704,
      "▁펜": 2705,
      "꺼이": 2706,
      "▁합리": 2707,
      "▁기꺼이": 2708,
      "▁할까요": 2709,
      "▁보냈": 2710,
      "▁모양": 2711,
      "▁소리": 2712,
      "▁감자": 2713,
      "▁자기": 2714,
      "▁부담": 2715,
      "▁유감": 2716,
      "▁프리미": 2717,
      "▁손잡이": 2718,
      "▁절대": 2719,
      "▁규정": 2720,
      "▁규칙": 2721,
      "▁프리미엄": 2722,
      "▁D": 2723,
      "▁움": 2724,
      "워요": 2725,
      "집니다": 2726,
      "▁을지": 2727,
      "▁제게": 2728,
      "▁고정": 2729,
      "▁여권": 2730,
      "▁부모": 2731,
      "▁바이": 2732,
      "▁마십시오": 2733,
      "▁매끄": 2734,
      "▁계시": 2735,
      "▁식기": 2736,
      "▁단지": 2737,
      "▁참고": 2738,
      "▁즐길": 2739,
      "▁박스": 2740,
      "▁스마트폰": 2741,
      "▁컬렉션": 2742,
      "▁암호": 2743,
      "▁분명히": 2744,
      "▁섭취": 2745,
      "▁CCTV": 2746,
      "▁극": 2747,
      "▁덜": 2748,
      "▁뜻": 2749,
      "▁빛": 2750,
      "▁짜": 2751,
      "▁탐": 2752,
      "▁혁": 2753,
      "래요": 2754,
      "로리": 2755,
      "머지": 2756,
      "킵니다": 2757,
      "▁가득": 2758,
      "▁가이드": 2759,
      "▁수요": 2760,
      "▁으니까": 2761,
      "▁로봇": 2762,
      "▁나머지": 2763,
      "▁드레스": 2764,
      "▁자금": 2765,
      "▁자사": 2766,
      "▁자주": 2767,
      "▁조각": 2768,
      "▁업계": 2769,
      "▁응답": 2770,
      "▁양식": 2771,
      "▁투자자": 2772,
      "▁지난주": 2773,
      "▁계약서": 2774,
      "▁헤어": 2775,
      "▁지하철": 2776,
      "▁F": 2777,
      "▁끌": 2778,
      "▁능": 2779,
      "▁샐": 2780,
      "▁씩": 2781,
      "▁쪽": 2782,
      "▁케": 2783,
      "▁튼": 2784,
      "레인": 2785,
      "젠테이션": 2786,
      "▁가정": 2787,
      "▁시기": 2788,
      "▁나오": 2789,
      "▁정책": 2790,
      "▁방수": 2791,
      "▁관계": 2792,
      "▁장난": 2793,
      "▁조직": 2794,
      "▁분석": 2795,
      "▁따뜻": 2796,
      "▁걸릴": 2797,
      "▁언급": 2798,
      "▁교환": 2799,
      "▁컨트": 2800,
      "▁충분히": 2801,
      "▁아마도": 2802,
      "▁일어나": 2803,
      "▁칼로리": 2804,
      "▁소비자": 2805,
      "▁익숙": 2806,
      "▁샐러": 2807,
      "▁K": 2808,
      "▁밴": 2809,
      "▁씁": 2810,
      "▁퍼": 2811,
      "▁TV": 2812,
      "가지": 2813,
      "니터": 2814,
      "드백": 2815,
      "탈로그": 2816,
      "▁이걸": 2817,
      "▁이사": 2818,
      "▁시킬": 2819,
      "▁시킵니다": 2820,
      "▁으려": 2821,
      "▁대형": 2822,
      "▁나와": 2823,
      "▁모니터": 2824,
      "▁드론": 2825,
      "▁오전": 2826,
      "▁마감": 2827,
      "▁생선": 2828,
      "▁생일": 2829,
      "▁동일": 2830,
      "▁진짜": 2831,
      "▁카탈로그": 2832,
      "▁단위": 2833,
      "▁어떻게": 2834,
      "▁노래": 2835,
      "▁운송": 2836,
      "▁레이": 2837,
      "▁이미지": 2838,
      "▁별로": 2839,
      "▁정확히": 2840,
      "▁스트리": 2841,
      "▁더라고": 2842,
      "▁프레젠테이션": 2843,
      "▁흡수": 2844,
      "▁프린터": 2845,
      "▁움직": 2846,
      "▁튼튼": 2847,
      "▁장난감": 2848,
      "▁샐러드": 2849,
      "▁삶": 2850,
      "▁웨": 2851,
      "▁존": 2852,
      "▁칩": 2853,
      "▁팝": 2854,
      "루션": 2855,
      "제품": 2856,
      "▁제일": 2857,
      "▁주인": 2858,
      "▁기념": 2859,
      "▁기쁘": 2860,
      "▁지지": 2861,
      "▁사야": 2862,
      "▁전략": 2863,
      "▁전부": 2864,
      "▁전원": 2865,
      "▁자산": 2866,
      "▁요소": 2867,
      "▁라벨": 2868,
      "▁매력": 2869,
      "▁실내": 2870,
      "▁무선": 2871,
      "▁동시": 2872,
      "▁작품": 2873,
      "▁발효": 2874,
      "▁드릴까요": 2875,
      "▁치료": 2876,
      "▁변화": 2877,
      "▁관리자": 2878,
      "▁쉬운": 2879,
      "▁축제": 2880,
      "▁측면": 2881,
      "▁수영장": 2882,
      "▁솔루션": 2883,
      "▁깨끗": 2884,
      "▁놀라운": 2885,
      "▁파스타": 2886,
      "▁씁니다": 2887,
      "▁북": 2888,
      "▁젤": 2889,
      "▁촉": 2890,
      "▁튀": 2891,
      "▁폭": 2892,
      "▁훈": 2893,
      "로드": 2894,
      "물관": 2895,
      "워크": 2896,
      "▁그럴": 2897,
      "▁주차": 2898,
      "▁사회": 2899,
      "▁입력": 2900,
      "▁우수": 2901,
      "▁스토": 2902,
      "▁사용자": 2903,
      "▁서로": 2904,
      "▁무역": 2905,
      "▁달라": 2906,
      "▁물어": 2907,
      "▁원단": 2908,
      "▁단순": 2909,
      "▁박물관": 2910,
      "▁형태": 2911,
      "▁심지": 2912,
      "▁봐야": 2913,
      "▁청구서": 2914,
      "▁채식주의": 2915,
      "▁닭고기": 2916,
      "▁재미있": 2917,
      "▁욕실": 2918,
      "▁프로세스": 2919,
      "▁겪": 2920,
      "▁셀": 2921,
      "▁핑": 2922,
      "러시": 2923,
      "플레이": 2924,
      "▁의견": 2925,
      "▁고용": 2926,
      "▁수리": 2927,
      "▁지나": 2928,
      "▁사양": 2929,
      "▁아빠": 2930,
      "▁보드": 2931,
      "▁세척": 2932,
      "▁여름": 2933,
      "▁일단": 2934,
      "▁일상": 2935,
      "▁당연": 2936,
      "▁부착": 2937,
      "▁비자": 2938,
      "▁회전": 2939,
      "▁유기": 2940,
      "▁유연": 2941,
      "▁연장": 2942,
      "▁상사": 2943,
      "▁실망": 2944,
      "▁건설": 2945,
      "▁추적": 2946,
      "▁찾아": 2947,
      "▁줄이": 2948,
      "▁항목": 2949,
      "▁참조": 2950,
      "▁강화": 2951,
      "▁어서요": 2952,
      "▁각각": 2953,
      "▁즐거운": 2954,
      "▁클래": 2955,
      "▁클렌": 2956,
      "▁잠재": 2957,
      "▁체크": 2958,
      "▁협상": 2959,
      "▁별도": 2960,
      "▁드려요": 2961,
      "▁컨트롤": 2962,
      "▁긍": 2963,
      "▁샤": 2964,
      "▁옥": 2965,
      "▁줬": 2966,
      "▁톤": 2967,
      "리어": 2968,
      "모션": 2969,
      "민국": 2970,
      "▁제어": 2971,
      "▁고르": 2972,
      "▁그거": 2973,
      "▁한가요": 2974,
      "▁주제": 2975,
      "▁아내": 2976,
      "▁아도": 2977,
      "▁도로": 2978,
      "▁으셨": 2979,
      "▁대리": 2980,
      "▁드린": 2981,
      "▁정기": 2982,
      "▁스크": 2983,
      "▁유닛": 2984,
      "▁유용": 2985,
      "▁상상": 2986,
      "▁대한민국": 2987,
      "▁프라이": 2988,
      "▁피트": 2989,
      "▁데려": 2990,
      "▁직장": 2991,
      "▁프로모션": 2992,
      "▁플랜": 2993,
      "▁금속": 2994,
      "▁패드": 2995,
      "▁휴가": 2996,
      "▁몰라": 2997,
      "▁들어가": 2998,
      "▁캠핑": 2999,
      "▁밖에": 3000,
      "▁어울리": 3001,
      "▁여쭤봐도": 3002,
      "▁겨울": 3003,
      "▁대단히": 3004,
      "▁추출물": 3005,
      "▁덕분": 3006,
      "▁혁신": 3007,
      "▁긍정": 3008,
      "▁U": 3009,
      "▁둔": 3010,
      "▁땅": 3011,
      "▁육": 3012,
      "▁텐": 3013,
      "란색": 3014,
      "위치": 3015,
      "인트": 3016,
      "전거": 3017,
      "찬가지": 3018,
      "▁가진": 3019,
      "▁해산물": 3020,
      "▁보충": 3021,
      "▁보입니다": 3022,
      "▁로운": 3023,
      "▁게시": 3024,
      "▁자유": 3025,
      "▁내려": 3026,
      "▁마찬가지": 3027,
      "▁에게서": 3028,
      "▁유일": 3029,
      "▁연료": 3030,
      "▁집중": 3031,
      "▁단백": 3032,
      "▁종종": 3033,
      "▁완성": 3034,
      "▁반품": 3035,
      "▁참가": 3036,
      "▁볼게요": 3037,
      "▁누군": 3038,
      "▁mm": 3039,
      "▁택시": 3040,
      "▁스트리밍": 3041,
      "▁벨": 3042,
      "▁콩": 3043,
      "▁펌": 3044,
      "스로": 3045,
      "시다": 3046,
      "으니": 3047,
      "▁가끔": 3048,
      "▁가벼": 3049,
      "▁고마": 3050,
      "▁지갑": 3051,
      "▁아시아": 3052,
      "▁도울": 3053,
      "▁대비": 3054,
      "▁대화": 3055,
      "▁19": 3056,
      "▁안타": 3057,
      "▁자전거": 3058,
      "▁라서": 3059,
      "▁신다면": 3060,
      "▁장기": 3061,
      "▁재정": 3062,
      "▁피자": 3063,
      "▁화면": 3064,
      "▁현실": 3065,
      "▁플레이": 3066,
      "▁행복": 3067,
      "▁학습": 3068,
      "▁코드": 3069,
      "▁트랩": 3070,
      "▁둘러": 3071,
      "▁엔진": 3072,
      "▁순간": 3073,
      "▁폴리": 3074,
      "▁흰색": 3075,
      "▁심지어": 3076,
      "▁단백질": 3077,
      "▁믹": 3078,
      "▁샌": 3079,
      "▁쯤": 3080,
      "니어": 3081,
      "자기": 3082,
      "▁어때": 3083,
      "▁기사": 3084,
      "▁다운": 3085,
      "▁세금": 3086,
      "▁인식": 3087,
      "▁일찍": 3088,
      "▁예술": 3089,
      "▁18": 3090,
      "▁소요": 3091,
      "▁스파": 3092,
      "▁비교": 3093,
      "▁마실": 3094,
      "▁중개": 3095,
      "▁피드백": 3096,
      "▁명확": 3097,
      "▁디자이너": 3098,
      "▁외부": 3099,
      "▁클라우": 3100,
      "▁애완": 3101,
      "▁혼합": 3102,
      "▁스트레스": 3103,
      "▁유기농": 3104,
      "▁누군가": 3105,
      "▁클라우드": 3106,
      "▁0": 3107,
      "▁곤": 3108,
      "▁맥": 3109,
      "▁써": 3110,
      "▁챙": 3111,
      "▁칠": 3112,
      "▁튜": 3113,
      "▁폐": 3114,
      "리지": 3115,
      "수증": 3116,
      "▁의류": 3117,
      "▁사료": 3118,
      "▁나이": 3119,
      "▁면허": 3120,
      "▁자료": 3121,
      "▁스쿠": 3122,
      "▁스튜": 3123,
      "▁스피": 3124,
      "▁스스로": 3125,
      "▁구할": 3126,
      "▁매운": 3127,
      "▁배치": 3128,
      "▁경기": 3129,
      "▁재산": 3130,
      "▁미터": 3131,
      "▁그래픽": 3132,
      "▁영수증": 3133,
      "▁차단": 3134,
      "▁불행": 3135,
      "▁초과": 3136,
      "▁테마": 3137,
      "▁타입": 3138,
      "▁머무": 3139,
      "▁증명": 3140,
      "▁드라이브": 3141,
      "▁살펴보": 3142,
      "▁에어컨": 3143,
      "▁더라고요": 3144,
      "▁안타깝": 3145,
      "▁/": 3146,
      "▁곡": 3147,
      "▁끼": 3148,
      "▁맡": 3149,
      "▁묻": 3150,
      "▁졸": 3151,
      "▁푸": 3152,
      "▁햄": 3153,
      "료품": 3154,
      "보드": 3155,
      "시간": 3156,
      "어버": 3157,
      "옵니다": 3158,
      "외선": 3159,
      "하물": 3160,
      "▁가스": 3161,
      "▁수하물": 3162,
      "▁그때": 3163,
      "▁그립": 3164,
      "▁한데": 3165,
      "▁주신": 3166,
      "▁주의": 3167,
      "▁기름": 3168,
      "▁지방": 3169,
      "▁다섯": 3170,
      "▁세상": 3171,
      "▁과학": 3172,
      "▁소형": 3173,
      "▁개최": 3174,
      "▁선반": 3175,
      "▁선사": 3176,
      "▁한국인": 3177,
      "▁식료품": 3178,
      "▁디스": 3179,
      "▁카페": 3180,
      "▁단체": 3181,
      "▁브러시": 3182,
      "▁답장": 3183,
      "▁누가": 3184,
      "▁가져오": 3185,
      "▁첫째": 3186,
      "▁둘째": 3187,
      "▁콘서": 3188,
      "▁줘요": 3189,
      "▁쿠션": 3190,
      "▁액세스": 3191,
      "▁기뻐요": 3192,
      "▁메모리": 3193,
      "▁탁월": 3194,
      "▁듯이": 3195,
      "▁펌프": 3196,
      "50": 3197,
      "▁M": 3198,
      "▁W": 3199,
      "▁뷔": 3200,
      "▁촬": 3201,
      "▁히": 3202,
      "양이": 3203,
      "지니어": 3204,
      "▁가질": 3205,
      "▁고양이": 3206,
      "▁사탕": 3207,
      "▁아기": 3208,
      "▁다리": 3209,
      "▁대회": 3210,
      "▁모터": 3211,
      "▁오븐": 3212,
      "▁더군요": 3213,
      "▁생기": 3214,
      "▁공부": 3215,
      "▁연주": 3216,
      "▁실험": 3217,
      "▁알려져": 3218,
      "▁미니": 3219,
      "▁영어": 3220,
      "▁손목": 3221,
      "▁길거리": 3222,
      "▁메이크": 3223,
      "▁날씨": 3224,
      "▁버터": 3225,
      "▁표현": 3226,
      "▁아이스크": 3227,
      "▁먼지": 3228,
      "▁코코": 3229,
      "▁보고서": 3230,
      "▁엔지니어": 3231,
      "▁권장": 3232,
      "▁플랫폼": 3233,
      "▁솔직": 3234,
      "▁네트워크": 3235,
      "▁능력": 3236,
      "▁콘서트": 3237,
      "▁뷔페": 3238,
      "▁촬영": 3239,
      "▁메이크업": 3240,
      "▁아이스크림": 3241,
      "▁넌": 3242,
      "▁붙": 3243,
      "▁젊": 3244,
      "▁콜": 3245,
      "시피": 3246,
      "테리어": 3247,
      "▁이틀": 3248,
      "▁수프": 3249,
      "▁해줍니다": 3250,
      "▁기분": 3251,
      "▁지도": 3252,
      "▁입찰": 3253,
      "▁나옵니다": 3254,
      "▁인테리어": 3255,
      "▁16": 3256,
      "▁오디오": 3257,
      "▁스탠": 3258,
      "▁비슷": 3259,
      "▁개별": 3260,
      "▁생성": 3261,
      "▁선명": 3262,
      "▁건축": 3263,
      "▁말레이": 3264,
      "▁통과": 3265,
      "▁화물": 3266,
      "▁구매자": 3267,
      "▁레시피": 3268,
      "▁브로": 3269,
      "▁책상": 3270,
      "▁활성": 3271,
      "▁60": 3272,
      "▁토요일": 3273,
      "▁복잡": 3274,
      "▁측정": 3275,
      "▁관광객": 3276,
      "▁훈련": 3277,
      "▁디스플레이": 3278,
      "▁말레이시아": 3279,
      "▁굉": 3280,
      "▁낼": 3281,
      "▁덮": 3282,
      "▁셰": 3283,
      "▁숨": 3284,
      "▁슈": 3285,
      "▁싸": 3286,
      "▁윤": 3287,
      "▁좌": 3288,
      "▁픽": 3289,
      "버지": 3290,
      "약품": 3291,
      "▁수술": 3292,
      "▁사장": 3293,
      "▁다르": 3294,
      "▁인공": 3295,
      "▁모드": 3296,
      "▁여부": 3297,
      "▁했었": 3298,
      "▁자격": 3299,
      "▁스킨": 3300,
      "▁구체": 3301,
      "▁마련": 3302,
      "▁마을": 3303,
      "▁생명": 3304,
      "▁유효": 3305,
      "▁포트": 3306,
      "▁설탕": 3307,
      "▁몇몇": 3308,
      "▁종일": 3309,
      "▁오늘날": 3310,
      "▁교통": 3311,
      "▁돼지": 3312,
      "▁열리": 3313,
      "▁잠금": 3314,
      "▁견고": 3315,
      "▁어려울": 3316,
      "▁송금": 3317,
      "▁쇼핑몰": 3318,
      "▁핸드": 3319,
      "▁알아보": 3320,
      "▁아름다운": 3321,
      "▁스피커": 3322,
      "▁g": 3323,
      "▁끈": 3324,
      "▁홀": 3325,
      "턴트": 3326,
      "▁이중": 3327,
      "▁하이": 3328,
      "▁하우스": 3329,
      "▁의약품": 3330,
      "▁고맙": 3331,
      "▁고민": 3332,
      "▁시리": 3333,
      "▁면도": 3334,
      "▁인생": 3335,
      "▁전력": 3336,
      "▁전용": 3337,
      "▁모습": 3338,
      "▁우려": 3339,
      "▁감지": 3340,
      "▁스프": 3341,
      "▁바르": 3342,
      "▁연간": 3343,
      "▁상관": 3344,
      "▁상담": 3345,
      "▁조립": 3346,
      "▁결함": 3347,
      "▁친절": 3348,
      "▁강한": 3349,
      "▁충족": 3350,
      "▁금지": 3351,
      "▁패널": 3352,
      "▁코팅": 3353,
      "▁베스트": 3354,
      "▁느껴": 3355,
      "▁블랙": 3356,
      "▁블루": 3357,
      "▁컨설": 3358,
      "▁숙소": 3359,
      "▁축하": 3360,
      "▁돌아가": 3361,
      "▁냉동": 3362,
      "▁항공편": 3363,
      "▁채식주의자": 3364,
      "▁굉장": 3365,
      "▁꺼": 3366,
      "▁널": 3367,
      "▁루": 3368,
      "▁봅": 3369,
      "▁억": 3370,
      "▁팁": 3371,
      "어도": 3372,
      "어진": 3373,
      "▁에이": 3374,
      "▁기한": 3375,
      "▁아들": 3376,
      "▁적어도": 3377,
      "▁14": 3378,
      "▁비해": 3379,
      "▁마우스": 3380,
      "▁라도": 3381,
      "▁신속": 3382,
      "▁확정": 3383,
      "▁조언": 3384,
      "▁야외": 3385,
      "▁달려": 3386,
      "▁원활": 3387,
      "▁번역": 3388,
      "▁따로": 3389,
      "▁직물": 3390,
      "▁패션": 3391,
      "▁제조사": 3392,
      "▁올바": 3393,
      "▁도매상": 3394,
      "▁역사": 3395,
      "▁규모": 3396,
      "▁150": 3397,
      "▁임대료": 3398,
      "▁액체": 3399,
      "▁1234": 3400,
      "▁가벼운": 3401,
      "▁스튜디오": 3402,
      "▁졸업": 3403,
      "▁솔직히": 3404,
      "▁$": 3405,
      "▁군": 3406,
      "▁났": 3407,
      "▁맺": 3408,
      "▁멈": 3409,
      "▁빼": 3410,
      "▁섞": 3411,
      "▁틀": 3412,
      "▁휠": 3413,
      "▁흔": 3414,
      "걸이": 3415,
      "러워": 3416,
      "려요": 3417,
      "없이": 3418,
      "자리": 3419,
      "▁가르": 3420,
      "▁제휴": 3421,
      "▁기구": 3422,
      "▁입장": 3423,
      "▁보습": 3424,
      "▁대체": 3425,
      "▁인체": 3426,
      "▁전송": 3427,
      "▁만날": 3428,
      "▁소중": 3429,
      "▁자극": 3430,
      "▁자외선": 3431,
      "▁위생": 3432,
      "▁바꾸": 3433,
      "▁매년": 3434,
      "▁매출": 3435,
      "▁신분": 3436,
      "▁선보": 3437,
      "▁경영": 3438,
      "▁미끄": 3439,
      "▁결합": 3440,
      "▁화이트": 3441,
      "▁정말로": 3442,
      "▁판매자": 3443,
      "▁여행자": 3444,
      "▁출발": 3445,
      "▁남아": 3446,
      "▁빨간": 3447,
      "▁202": 3448,
      "▁페이": 3449,
      "▁농업": 3450,
      "▁휴대용": 3451,
      "▁봐요": 3452,
      "▁센서": 3453,
      "▁계신가요": 3454,
      "▁다운로드": 3455,
      "▁맥주": 3456,
      "▁'": 3457,
      "▁격": 3458,
      "▁꿈": 3459,
      "▁낭": 3460,
      "▁똑": 3461,
      "▁뚜": 3462,
      "▁뜨": 3463,
      "▁죽": 3464,
      "▁캡": 3465,
      "드시": 3466,
      "때로": 3467,
      "레르": 3468,
      "심히": 3469,
      "환경": 3470,
      "▁은지": 3471,
      "▁제기": 3472,
      "▁수많": 3473,
      "▁그만": 3474,
      "▁한옥": 3475,
      "▁기관": 3476,
      "▁다만": 3477,
      "▁대하": 3478,
      "▁거실": 3479,
      "▁알레르": 3480,
      "▁자원": 3481,
      "▁오류": 3482,
      "▁오픈": 3483,
      "▁비누": 3484,
      "▁중심": 3485,
      "▁때때로": 3486,
      "▁배울": 3487,
      "▁상당": 3488,
      "▁상의": 3489,
      "▁최종": 3490,
      "▁건지": 3491,
      "▁경매": 3492,
      "▁원래": 3493,
      "▁재생": 3494,
      "▁분리": 3495,
      "▁파란색": 3496,
      "▁영감": 3497,
      "▁아니면": 3498,
      "▁불가": 3499,
      "▁친환경": 3500,
      "▁투명": 3501,
      "▁월요일": 3502,
      "▁가져가": 3503,
      "▁블록": 3504,
      "▁어려움": 3505,
      "▁놓치": 3506,
      "▁녹색": 3507,
      "▁워치": 3508,
      "▁다행히": 3509,
      "▁이동식": 3510,
      "▁뭔가": 3511,
      "▁민감": 3512,
      "▁희망": 3513,
      "▁기념품": 3514,
      "▁컨트롤러": 3515,
      "▁대리점": 3516,
      "▁스쿠버": 3517,
      "▁신분증": 3518,
      "▁E": 3519,
      "▁벤": 3520,
      "▁석": 3521,
      "▁캔": 3522,
      "무리": 3523,
      "버거": 3524,
      "블릿": 3525,
      "시계": 3526,
      "페이지": 3527,
      "페이스": 3528,
      "해요": 3529,
      "▁이어": 3530,
      "▁하드": 3531,
      "▁그분": 3532,
      "▁그대로": 3533,
      "▁저기": 3534,
      "▁기차": 3535,
      "▁사운드": 3536,
      "▁보석": 3537,
      "▁로고": 3538,
      "▁나온": 3539,
      "▁인간": 3540,
      "▁여자": 3541,
      "▁소통": 3542,
      "▁정밀": 3543,
      "▁바디": 3544,
      "▁내주": 3545,
      "▁마무리": 3546,
      "▁유사": 3547,
      "▁포켓": 3548,
      "▁셔츠": 3549,
      "▁작가": 3550,
      "▁피하": 3551,
      "▁손실": 3552,
      "▁편집": 3553,
      "▁국립": 3554,
      "▁플래": 3555,
      "▁환자": 3556,
      "▁충격": 3557,
      "▁리뷰": 3558,
      "▁열심히": 3559,
      "▁응용": 3560,
      "▁평생": 3561,
      "▁취급": 3562,
      "▁한다면": 3563,
      "▁견과": 3564,
      "▁태블릿": 3565,
      "▁엄청난": 3566,
      "▁잖아요": 3567,
      "▁염두": 3568,
      "▁힘들": 3569,
      "▁홈페이지": 3570,
      "▁균형": 3571,
      "▁매끄럽": 3572,
      "레인지": 3573,
      "▁샤워": 3574,
      "▁햄버거": 3575,
      "▁스탠드": 3576,
      "▁뚜껑": 3577,
      "▁알레르기": 3578,
      "ED": 3579,
      "▁걔": 3580,
      "▁닫": 3581,
      "▁런": 3582,
      "▁빈": 3583,
      "▁쌍": 3584,
      "▁잉": 3585,
      "▁켜": 3586,
      "▁흐": 3587,
      "러스": 3588,
      "레기": 3589,
      "루미": 3590,
      "뮤니": 3591,
      "코올": 3592,
      "▁이거": 3593,
      "▁수락": 3594,
      "▁수명": 3595,
      "▁그날": 3596,
      "▁지식": 3597,
      "▁지침": 3598,
      "▁으셔": 3599,
      "▁세일": 3600,
      "▁전반": 3601,
      "▁거주": 3602,
      "▁적당": 3603,
      "▁일으": 3604,
      "▁회원": 3605,
      "▁구축": 3606,
      "▁마사": 3607,
      "▁마치": 3608,
      "▁공개": 3609,
      "▁방송": 3610,
      "▁확보": 3611,
      "▁된다는": 3612,
      "▁재킷": 3613,
      "▁파우": 3614,
      "▁통신": 3615,
      "▁처방": 3616,
      "▁직업": 3617,
      "▁불구": 3618,
      "▁반드시": 3619,
      "▁여행사": 3620,
      "▁품절": 3621,
      "▁명시": 3622,
      "▁친화": 3623,
      "▁리모": 3624,
      "▁금요일": 3625,
      "▁행동": 3626,
      "▁올라": 3627,
      "▁올려": 3628,
      "▁엄격": 3629,
      "▁커뮤니": 3630,
      "▁평소": 3631,
      "▁채널": 3632,
      "▁채소": 3633,
      "▁접수": 3634,
      "▁취하": 3635,
      "▁체육": 3636,
      "▁느끼": 3637,
      "▁80": 3638,
      "▁태국": 3639,
      "▁허브": 3640,
      "▁쓰레기": 3641,
      "▁어려운": 3642,
      "▁니까요": 3643,
      "▁전자레인지": 3644,
      "▁컬러": 3645,
      "▁봉사": 3646,
      "▁택배": 3647,
      "▁세탁기": 3648,
      "▁이루어": 3649,
      "▁밴드": 3650,
      "▁샌드": 3651,
      "▁손목시계": 3652,
      "▁에이전": 3653,
      "▁낭비": 3654,
      "루미늄": 3655,
      "EO": 3656,
      "▁H": 3657,
      "▁R": 3658,
      "▁뒷": 3659,
      "런스": 3660,
      "▁이탈": 3661,
      "▁어머니": 3662,
      "▁의향": 3663,
      "▁제시": 3664,
      "▁시각": 3665,
      "▁시원": 3666,
      "▁아버지": 3667,
      "▁보일": 3668,
      "▁로그": 3669,
      "▁나누": 3670,
      "▁나타": 3671,
      "▁과거": 3672,
      "▁드실": 3673,
      "▁알리": 3674,
      "▁알루미늄": 3675,
      "▁만약": 3676,
      "▁예방": 3677,
      "▁정신": 3678,
      "▁구나": 3679,
      "▁구하": 3680,
      "▁유제품": 3681,
      "▁공연": 3682,
      "▁공정": 3683,
      "▁중인": 3684,
      "▁실행": 3685,
      "▁발명": 3686,
      "▁편지": 3687,
      "▁반응": 3688,
      "▁리터": 3689,
      "▁기다릴": 3690,
      "▁행운": 3691,
      "▁남자": 3692,
      "▁코스": 3693,
      "▁각질": 3694,
      "▁클럽": 3695,
      "▁클릭": 3696,
      "▁향수": 3697,
      "▁머그": 3698,
      "▁페인트": 3699,
      "▁스테이크": 3700,
      "▁빌라": 3701,
      "▁목적지": 3702,
      "▁워킹": 3703,
      "▁250": 3704,
      "▁AI": 3705,
      "▁헤드폰": 3706,
      "▁핸들": 3707,
      "▁뉴욕": 3708,
      "▁US": 3709,
      "▁시리즈": 3710,
      "▁깔": 3711,
      "▁꾸": 3712,
      "▁래": 3713,
      "▁묘": 3714,
      "▁밸": 3715,
      "▁칫": 3716,
      "▁흘": 3717,
      "▁냅니다": 3718,
      "납니다": 3719,
      "셔츠": 3720,
      "수록": 3721,
      "팩트": 3722,
      "▁의해": 3723,
      "▁그릇": 3724,
      "▁주저": 3725,
      "▁사원": 3726,
      "▁사전": 3727,
      "▁으십니까": 3728,
      "▁보조": 3729,
      "▁로션": 3730,
      "▁모릅니다": 3731,
      "▁드디어": 3732,
      "▁일회": 3733,
      "▁예전": 3734,
      "▁와이": 3735,
      "▁감시": 3736,
      "▁부엌": 3737,
      "▁부인": 3738,
      "▁바나": 3739,
      "▁비싼": 3740,
      "▁내역": 3741,
      "▁달콤": 3742,
      "▁성인": 3743,
      "▁번거": 3744,
      "▁용도": 3745,
      "▁설립": 3746,
      "▁화폐": 3747,
      "▁카운": 3748,
      "▁금융": 3749,
      "▁아이스": 3750,
      "▁평방": 3751,
      "▁검색": 3752,
      "▁티셔츠": 3753,
      "▁갖춘": 3754,
      "▁역시": 3755,
      "▁인터페이스": 3756,
      "▁허가": 3757,
      "▁멋지": 3758,
      "▁송장": 3759,
      "▁아무것": 3760,
      "▁항공사": 3761,
      "▁납니다": 3762,
      "▁갑자기": 3763,
      "▁LED": 3764,
      "▁불행히": 3765,
      "▁샌드위치": 3766,
      "▁칫솔": 3767,
      "▁럼": 3768,
      "▁벗": 3769,
      "▁앨": 3770,
      "▁킬": 3771,
      "▁텔": 3772,
      "▁펀": 3773,
      "▁핫": 3774,
      "데요": 3775,
      "드립니다": 3776,
      "스테": 3777,
      "영상": 3778,
      "▁을까": 3779,
      "▁가전": 3780,
      "▁어떠": 3781,
      "▁도달": 3782,
      "▁으므로": 3783,
      "▁일치": 3784,
      "▁소파": 3785,
      "▁소포": 3786,
      "▁오랜": 3787,
      "▁오렌": 3788,
      "▁부스": 3789,
      "▁스케": 3790,
      "▁스티": 3791,
      "▁바다": 3792,
      "▁구비": 3793,
      "▁내리": 3794,
      "▁마스터": 3795,
      "▁생겼": 3796,
      "▁실례": 3797,
      "▁동영상": 3798,
      "▁조심": 3799,
      "▁조차": 3800,
      "▁조합": 3801,
      "▁달리": 3802,
      "▁식량": 3803,
      "▁미용": 3804,
      "▁통합": 3805,
      "▁걸로": 3806,
      "▁걸립니다": 3807,
      "▁현장": 3808,
      "▁편하": 3809,
      "▁줄여": 3810,
      "▁불러": 3811,
      "▁준수": 3812,
      "▁크리스": 3813,
      "▁반갑": 3814,
      "▁메인": 3815,
      "▁초기": 3816,
      "▁레몬": 3817,
      "▁강철": 3818,
      "▁질병": 3819,
      "▁트리": 3820,
      "▁휴식": 3821,
      "▁콘솔": 3822,
      "▁승객": 3823,
      "▁캠페인": 3824,
      "▁쿠키": 3825,
      "▁헤드셋": 3826,
      "▁벌써": 3827,
      "▁사과드립니다": 3828,
      "▁떠나": 3829,
      "▁폴리에": 3830,
      "▁튜브": 3831,
      "▁체육관": 3832,
      "▁이탈리아": 3833,
      "▁바나나": 3834,
      "▁앨범": 3835,
      "or": 3836,
      "▁T": 3837,
      "▁낫": 3838,
      "▁땀": 3839,
      "▁뷰": 3840,
      "▁젖": 3841,
      "▁척": 3842,
      "▁킹": 3843,
      "▁템": 3844,
      "▁휘": 3845,
      "라고": 3846,
      "로운": 3847,
      "르트": 3848,
      "몬드": 3849,
      "운데": 3850,
      "으며": 3851,
      "칩니다": 3852,
      "▁수납": 3853,
      "▁수상": 3854,
      "▁한식": 3855,
      "▁주거": 3856,
      "▁주머니": 3857,
      "▁저축": 3858,
      "▁기어": 3859,
      "▁지정": 3860,
      "▁시켰": 3861,
      "▁입술": 3862,
      "▁다를": 3863,
      "▁세련": 3864,
      "▁인사": 3865,
      "▁과자": 3866,
      "▁거부": 3867,
      "▁17": 3868,
      "▁감소": 3869,
      "▁정해": 3870,
      "▁문구": 3871,
      "▁비밀": 3872,
      "▁23": 3873,
      "▁회복": 3874,
      "▁내년": 3875,
      "▁개당": 3876,
      "▁중간": 3877,
      "▁신경": 3878,
      "▁신호": 3879,
      "▁경찰": 3880,
      "▁물류": 3881,
      "▁작년": 3882,
      "▁분류": 3883,
      "▁그래야": 3884,
      "▁두려": 3885,
      "▁그렇지만": 3886,
      "▁차지": 3887,
      "▁약관": 3888,
      "▁완비": 3889,
      "▁초보": 3890,
      "▁45": 3891,
      "▁400": 3892,
      "▁교수": 3893,
      "▁치수": 3894,
      "▁아이템": 3895,
      "▁등급": 3896,
      "▁보험료": 3897,
      "▁농산물": 3898,
      "▁빌리": 3899,
      "▁다이어": 3900,
      "▁신청서": 3901,
      "▁떨어져": 3902,
      "▁프레임": 3903,
      "▁매트리스": 3904,
      "▁립스틱": 3905,
      "▁으려면": 3906,
      "▁단순히": 3907,
      "▁체크인": 3908,
      "▁면허증": 3909,
      "▁코코넛": 3910,
      "▁좌석": 3911,
      "▁마사지": 3912,
      "▁일회용": 3913,
      "▁오렌지": 3914,
      "67": 3915,
      "IP": 3916,
      "▁깜": 3917,
      "▁끊": 3918,
      "▁밑": 3919,
      "▁쇠": 3920,
      "▁앤": 3921,
      "▁옮": 3922,
      "▁칭": 3923,
      "▁퇴": 3924,
      "▁핏": 3925,
      "▁황": 3926,
      "라믹": 3927,
      "리터": 3928,
      "언가": 3929,
      "업자": 3930,
      "으면": 3931,
      "카락": 3932,
      "퍼니": 3933,
      "화물": 3934,
      "▁어렸": 3935,
      "▁한정": 3936,
      "▁지구": 3937,
      "▁아프": 3938,
      "▁세관": 3939,
      "▁세라믹": 3940,
      "▁나쁜": 3941,
      "▁인형": 3942,
      "▁전국": 3943,
      "▁전액": 3944,
      "▁전환": 3945,
      "▁여유": 3946,
      "▁알코올": 3947,
      "▁13": 3948,
      "▁소지": 3949,
      "▁정원": 3950,
      "▁부과": 3951,
      "▁비트": 3952,
      "▁회계": 3953,
      "▁마침": 3954,
      "▁됩니까": 3955,
      "▁신고": 3956,
      "▁연습": 3957,
      "▁연회": 3958,
      "▁최적": 3959,
      "▁무언가": 3960,
      "▁조작": 3961,
      "▁원해요": 3962,
      "▁새우": 3963,
      "▁영광": 3964,
      "▁카트": 3965,
      "▁가격표": 3966,
      "▁종료": 3967,
      "▁운반": 3968,
      "▁출판": 3969,
      "▁강도": 3970,
      "▁요리사": 3971,
      "▁남기": 3972,
      "▁남편": 3973,
      "▁즐겁": 3974,
      "▁즐겨": 3975,
      "▁근무": 3976,
      "▁토지": 3977,
      "▁70": 3978,
      "▁컴퍼니": 3979,
      "▁잡지": 3980,
      "▁믿기": 3981,
      "▁어려워": 3982,
      "▁빌릴": 3983,
      "▁뛰어나": 3984,
      "▁송료": 3985,
      "▁탄산": 3986,
      "▁편의점": 3987,
      "▁머리카락": 3988,
      "▁뭔가요": 3989,
      "▁탑재": 3990,
      "▁VIP": 3991,
      "▁빛나": 3992,
      "▁팝업": 3993,
      "▁클래스": 3994,
      "▁고마워": 3995,
      "▁픽업": 3996,
      "▁굉장히": 3997,
      "▁똑같": 3998,
      "▁로그인": 3999,
      "▁USB": 4000,
      "▁카운터": 4001,
      "60": 4002,
      "an": 4003,
      "▁섹": 4004,
      "▁얇": 4005,
      "▁핵": 4006,
      "▁혈": 4007,
      "가락": 4008,
      "고리": 4009,
      "리오": 4010,
      "마자": 4011,
      "아들": 4012,
      "위기": 4013,
      "케어": 4014,
      "▁제외": 4015,
      "▁수령": 4016,
      "▁주최": 4017,
      "▁지능": 4018,
      "▁지퍼": 4019,
      "▁시대": 4020,
      "▁아웃": 4021,
      "▁으러": 4022,
      "▁보수": 4023,
      "▁대상": 4024,
      "▁대중": 4025,
      "▁게이": 4026,
      "▁으로서": 4027,
      "▁모기": 4028,
      "▁모험": 4029,
      "▁드셔": 4030,
      "▁여분": 4031,
      "▁적극": 4032,
      "▁소금": 4033,
      "▁당일": 4034,
      "▁당장": 4035,
      "▁자재": 4036,
      "▁자마자": 4037,
      "▁정수": 4038,
      "▁부르": 4039,
      "▁부위": 4040,
      "▁비서": 4041,
      "▁비율": 4042,
      "▁내어": 4043,
      "▁유럽": 4044,
      "▁방향": 4045,
      "▁장애": 4046,
      "▁야간": 4047,
      "▁성함": 4048,
      "▁재질": 4049,
      "▁분위기": 4050,
      "▁미술": 4051,
      "▁새롭": 4052,
      "▁파이": 4053,
      "▁화상": 4054,
      "▁맞춰": 4055,
      "▁단일": 4056,
      "▁얼음": 4057,
      "▁길이": 4058,
      "▁명의": 4059,
      "▁패턴": 4060,
      "▁즐거": 4061,
      "▁취향": 4062,
      "▁체중": 4063,
      "▁놀랍": 4064,
      "▁놀랐": 4065,
      "▁심장": 4066,
      "▁첨가": 4067,
      "▁테이프": 4068,
      "▁최소한": 4069,
      "▁화장실": 4070,
      "▁압축": 4071,
      "▁어울릴": 4072,
      "▁기다려야": 4073,
      "▁아름답": 4074,
      "▁멀리": 4075,
      "▁태양광": 4076,
      "▁깊이": 4077,
      "▁글쎄요": 4078,
      "▁철저": 4079,
      "▁바이러스": 4080,
      "▁으려고": 4081,
      "▁모니터링": 4082,
      "▁튀김": 4083,
      "▁Wi": 4084,
      "▁스킨케어": 4085,
      "▁경영진": 4086,
      "▁킬로": 4087,
      "▁텔레": 4088,
      "▁템플": 4089,
      "▁섹션": 4090,
      "es": 4091,
      "▁덤": 4092,
      "▁숫": 4093,
      "▁울": 4094,
      "▁탱": 4095,
      "▁헬": 4096,
      "▁듭니다": 4097,
      "그래": 4098,
      "깁니다": 4099,
      "드름": 4100,
      "뮬러": 4101,
      "미터": 4102,
      "봐야": 4103,
      "비전": 4104,
      "수수": 4105,
      "은색": 4106,
      "주얼": 4107,
      "카드": 4108,
      "▁어떨": 4109,
      "▁수면": 4110,
      "▁수확": 4111,
      "▁그랬": 4112,
      "▁합성": 4113,
      "▁해상": 4114,
      "▁지리": 4115,
      "▁시내": 4116,
      "▁시일": 4117,
      "▁시청": 4118,
      "▁보낸": 4119,
      "▁인원": 4120,
      "▁모금": 4121,
      "▁여드름": 4122,
      "▁우편": 4123,
      "▁자고": 4124,
      "▁자율": 4125,
      "▁정상": 4126,
      "▁비닐": 4127,
      "▁비상": 4128,
      "▁21": 4129,
      "▁22": 4130,
      "▁유익": 4131,
      "▁신규": 4132,
      "▁신축": 4133,
      "▁계란": 4134,
      "▁계십니까": 4135,
      "▁동네": 4136,
      "▁받아들": 4137,
      "▁장갑": 4138,
      "▁장례": 4139,
      "▁건너": 4140,
      "▁달성": 4141,
      "▁포뮬러": 4142,
      "▁재무": 4143,
      "▁미치": 4144,
      "▁피해": 4145,
      "▁두피": 4146,
      "▁영역": 4147,
      "▁단단": 4148,
      "▁불량": 4149,
      "▁약국": 4150,
      "▁반면": 4151,
      "▁강조": 4152,
      "▁질감": 4153,
      "▁절단": 4154,
      "▁올리": 4155,
      "▁외관": 4156,
      "▁채팅": 4157,
      "▁머신": 4158,
      "▁체험": 4159,
      "▁광택": 4160,
      "▁담배": 4161,
      "▁베이스": 4162,
      "▁돌려": 4163,
      "▁블레이드": 4164,
      "▁컴팩트": 4165,
      "▁글로": 4166,
      "▁놀이": 4167,
      "▁심각": 4168,
      "▁창의": 4169,
      "▁긴장": 4170,
      "▁줘서": 4171,
      "▁백신": 4172,
      "▁녹음": 4173,
      "▁충전기": 4174,
      "▁흥분": 4175,
      "▁어울립니다": 4176,
      "▁엄청나": 4177,
      "▁봉지": 4178,
      "▁잃어버": 4179,
      "▁인데요": 4180,
      "▁GP": 4181,
      "▁다가오": 4182,
      "▁삼각": 4183,
      "▁Fi": 4184,
      "▁케어": 4185,
      "▁존재": 4186,
      "▁클래식": 4187,
      "▁옥수수": 4188,
      "▁벨트": 4189,
      "▁중개인": 4190,
      "▁올바른": 4191,
      "▁상당히": 4192,
      "▁이어폰": 4193,
      "▁뷰티": 4194,
      "678": 4195,
      "▁쇠고기": 4196,
      "▁텔레비전": 4197,
      "▁숫자": 4198,
      "PA": 4199,
      "ea": 4200,
      "om": 4201,
      "▁긁": 4202,
      "▁끓": 4203,
      "▁삽": 4204,
      "▁셋": 4205,
      "▁씻": 4206,
      "▁잎": 4207,
      "▁흠": 4208,
      "나무": 4209,
      "러지": 4210,
      "로이드": 4211,
      "셀러": 4212,
      "신료": 4213,
      "쌉니다": 4214,
      "에도": 4215,
      "푸드": 4216,
      "▁을게요": 4217,
      "▁수년": 4218,
      "▁그릴": 4219,
      "▁합의": 4220,
      "▁주지": 4221,
      "▁기울": 4222,
      "▁지급": 4223,
      "▁지켜": 4224,
      "▁세대": 4225,
      "▁들리": 4226,
      "▁나왔": 4227,
      "▁면적": 4228,
      "▁인정": 4229,
      "▁우린": 4230,
      "▁우아": 4231,
      "▁소독": 4232,
      "▁소음": 4233,
      "▁오른": 4234,
      "▁오염": 4235,
      "▁부산": 4236,
      "▁스위": 4237,
      "▁바꿀": 4238,
      "▁유행": 4239,
      "▁연기": 4240,
      "▁배웠": 4241,
      "▁배포": 4242,
      "▁상쾌": 4243,
      "▁음성": 4244,
      "▁한국어": 4245,
      "▁재배": 4246,
      "▁작용": 4247,
      "▁분실": 4248,
      "▁미안": 4249,
      "▁파손": 4250,
      "▁용이": 4251,
      "▁통제": 4252,
      "▁진출": 4253,
      "▁너비": 4254,
      "▁불과": 4255,
      "▁따라야": 4256,
      "▁초점": 4257,
      "▁출력": 4258,
      "▁간주": 4259,
      "▁그럼에도": 4260,
      "▁교사": 4261,
      "▁리필": 4262,
      "▁패스트": 4263,
      "▁등산": 4264,
      "▁답니다": 4265,
      "▁향신료": 4266,
      "▁이용해": 4267,
      "▁체인": 4268,
      "▁검은색": 4269,
      "▁이유로": 4270,
      "▁가져왔": 4271,
      "▁지난번": 4272,
      "▁개발자": 4273,
      "▁농부": 4274,
      "▁복용": 4275,
      "▁요구르트": 4276,
      "▁키보드": 4277,
      "▁축구": 4278,
      "▁밀리": 4279,
      "▁캐주얼": 4280,
      "▁잔디": 4281,
      "▁옷장": 4282,
      "▁압력": 4283,
      "▁터치": 4284,
      "▁슬라이": 4285,
      "▁골프": 4286,
      "▁멀티": 4287,
      "▁져다": 4288,
      "▁타이어": 4289,
      "▁관해서": 4290,
      "▁차이점": 4291,
      "▁레이저": 4292,
      "▁움직이": 4293,
      "▁클렌징": 4294,
      "▁스크린": 4295,
      "▁몰라요": 4296,
      "▁슈퍼": 4297,
      "▁베스트셀러": 4298,
      "▁잉크": 4299,
      "▁다이어트": 4300,
      "▁글로벌": 4301,
      "on": 4302,
      "ti": 4303,
      "▁껍": 4304,
      "▁델": 4305,
      "▁돋": 4306,
      "▁묶": 4307,
      "▁짓": 4308,
      "▁쳐": 4309,
      "가포": 4310,
      "갑니다": 4311,
      "규모": 4312,
      "닐라": 4313,
      "류장": 4314,
      "릭터": 4315,
      "마토": 4316,
      "범위": 4317,
      "세척": 4318,
      "아웃": 4319,
      "천히": 4320,
      "코니": 4321,
      "트업": 4322,
      "퍼런스": 4323,
      "▁는다는": 4324,
      "▁가본": 4325,
      "▁가슴": 4326,
      "▁의존": 4327,
      "▁고대": 4328,
      "▁고등": 4329,
      "▁수동": 4330,
      "▁수제": 4331,
      "▁수집": 4332,
      "▁그저": 4333,
      "▁합시다": 4334,
      "▁해졌": 4335,
      "▁주행": 4336,
      "▁기내": 4337,
      "▁지사": 4338,
      "▁사기": 4339,
      "▁사우": 4340,
      "▁다크": 4341,
      "▁대여": 4342,
      "▁나사": 4343,
      "▁모임": 4344,
      "▁소규모": 4345,
      "▁와우": 4346,
      "▁감정": 4347,
      "▁정류장": 4348,
      "▁스틱": 4349,
      "▁스페인": 4350,
      "▁비쌉니다": 4351,
      "▁구운": 4352,
      "▁내내": 4353,
      "▁마셔": 4354,
      "▁개념": 4355,
      "▁매주": 4356,
      "▁중앙": 4357,
      "▁최상": 4358,
      "▁무서": 4359,
      "▁무거운": 4360,
      "▁계세요": 4361,
      "▁선불": 4362,
      "▁조달": 4363,
      "▁된다고": 4364,
      "▁경로": 4365,
      "▁물고기": 4366,
      "▁원료": 4367,
      "▁원자": 4368,
      "▁원한": 4369,
      "▁35": 4370,
      "▁용지": 4371,
      "▁데스크": 4372,
      "▁발코니": 4373,
      "▁만들어진": 4374,
      "▁단골": 4375,
      "▁불법": 4376,
      "▁완화": 4377,
      "▁반죽": 4378,
      "▁노동": 4379,
      "▁맛보": 4380,
      "▁볼트": 4381,
      "▁브라": 4382,
      "▁치아": 4383,
      "▁치약": 4384,
      "▁공급자": 4385,
      "▁열려": 4386,
      "▁열쇠": 4387,
      "▁코리아": 4388,
      "▁광범위": 4389,
      "▁협업": 4390,
      "▁협조": 4391,
      "▁토론": 4392,
      "▁토마토": 4393,
      "▁컨디": 4394,
      "▁스타트업": 4395,
      "▁천만": 4396,
      "▁천천히": 4397,
      "▁창문": 4398,
      "▁독점": 4399,
      "▁팔리": 4400,
      "▁허리": 4401,
      "▁들어오": 4402,
      "▁긴급": 4403,
      "▁90": 4404,
      "▁다이얼": 4405,
      "▁돌아오": 4406,
      "▁캐릭터": 4407,
      "▁염색": 4408,
      "▁혹은": 4409,
      "▁더라도": 4410,
      "▁골드": 4411,
      "▁탑승": 4412,
      "▁싱가포": 4413,
      "▁전시회": 4414,
      "▁식기세척": 4415,
      "▁짜리": 4416,
      "▁촉진": 4417,
      "▁컨설턴트": 4418,
      "▁봅니다": 4419,
      "▁빨간색": 4420,
      "▁에이전트": 4421,
      "▁핵심": 4422,
      "▁싱가포르": 4423,
      "▁식기세척기": 4424,
      "▁°": 4425,
      "▁낙": 4426,
      "▁닝": 4427,
      "▁띄": 4428,
      "▁롤": 4429,
      "▁뿌": 4430,
      "▁왼": 4431,
      "▁탭": 4432,
      "▁털": 4433,
      "▁햇": 4434,
      "램프": 4435,
      "리카": 4436,
      "마스": 4437,
      "수화물": 4438,
      "어링": 4439,
      "염병": 4440,
      "오르": 4441,
      "일러": 4442,
      "조림": 4443,
      "테리아": 4444,
      "▁이국": 4445,
      "▁이웃": 4446,
      "▁이자": 4447,
      "▁가금": 4448,
      "▁고추": 4449,
      "▁고통": 4450,
      "▁수록": 4451,
      "▁수백": 4452,
      "▁한편": 4453,
      "▁주름": 4454,
      "▁주목": 4455,
      "▁사면": 4456,
      "▁입구": 4457,
      "▁입증": 4458,
      "▁다닐": 4459,
      "▁대기": 4460,
      "▁대의": 4461,
      "▁대행": 4462,
      "▁나쁘": 4463,
      "▁인한": 4464,
      "▁전망": 4465,
      "▁일요일": 4466,
      "▁예측": 4467,
      "▁안경": 4468,
      "▁소고기": 4469,
      "▁와트": 4470,
      "▁당근": 4471,
      "▁자녀": 4472,
      "▁자본": 4473,
      "▁정의": 4474,
      "▁정품": 4475,
      "▁문자": 4476,
      "▁부츠": 4477,
      "▁스무": 4478,
      "▁바람": 4479,
      "▁유아": 4480,
      "▁공예": 4481,
      "▁중단": 4482,
      "▁실패": 4483,
      "▁실시간": 4484,
      "▁확대": 4485,
      "▁장미": 4486,
      "▁경력": 4487,
      "▁경향": 4488,
      "▁포스터": 4489,
      "▁원했": 4490,
      "▁식탁": 4491,
      "▁미식": 4492,
      "▁결코": 4493,
      "▁피곤": 4494,
      "▁통조림": 4495,
      "▁화재": 4496,
      "▁현미": 4497,
      "▁진공": 4498,
      "▁단점": 4499,
      "▁줄게": 4500,
      "▁줄일": 4501,
      "▁국수": 4502,
      "▁얼룩": 4503,
      "▁강의": 4504,
      "▁버리": 4505,
      "▁버섯": 4506,
      "▁리더": 4507,
      "▁리스트": 4508,
      "▁금리": 4509,
      "▁코너": 4510,
      "▁못한": 4511,
      "▁제안서": 4512,
      "▁갈색": 4513,
      "▁임상": 4514,
      "▁잠깐": 4515,
      "▁누르": 4516,
      "▁설명서": 4517,
      "▁느낄": 4518,
      "▁보증금": 4519,
      "▁소매점": 4520,
      "▁법률": 4521,
      "▁영화관": 4522,
      "▁탄력": 4523,
      "▁탄소": 4524,
      "▁탄수화물": 4525,
      "▁관광지": 4526,
      "▁막대": 4527,
      "▁착용감": 4528,
      "▁매끄러운": 4529,
      "▁셀러": 4530,
      "▁찾아보": 4531,
      "▁텐트": 4532,
      "▁곡물": 4533,
      "▁숨겨": 4534,
      "▁스프레이": 4535,
      "▁2021": 4536,
      "▁불가사": 4537,
      "▁처방전": 4538,
      "▁깔끔": 4539,
      "▁크리스마스": 4540,
      "▁삼각대": 4541,
      "▁사우나": 4542,
      "in": 4543,
      "▁곁": 4544,
      "▁굴": 4545,
      "▁뮤": 4546,
      "▁엘": 4547,
      "▁윈": 4548,
      "▁좁": 4549,
      "▁쿨": 4550,
      "▁폰": 4551,
      "기성": 4552,
      "나다": 4553,
      "라스": 4554,
      "랑스": 4555,
      "아리": 4556,
      "일론": 4557,
      "호사": 4558,
      "▁는다고": 4559,
      "▁의심": 4560,
      "▁그린": 4561,
      "▁해질": 4562,
      "▁주기": 4563,
      "▁기부": 4564,
      "▁기획": 4565,
      "▁지판": 4566,
      "▁아쉽": 4567,
      "▁입금": 4568,
      "▁도전": 4569,
      "▁다소": 4570,
      "▁할까": 4571,
      "▁세션": 4572,
      "▁대략": 4573,
      "▁대안": 4574,
      "▁로움": 4575,
      "▁나가": 4576,
      "▁나일론": 4577,
      "▁인삼": 4578,
      "▁인용": 4579,
      "▁전해": 4580,
      "▁전염병": 4581,
      "▁당시": 4582,
      "▁자면": 4583,
      "▁오르": 4584,
      "▁부응": 4585,
      "▁부채": 4586,
      "▁스러": 4587,
      "▁바를": 4588,
      "▁구동": 4589,
      "▁마늘": 4590,
      "▁생체": 4591,
      "▁서둘": 4592,
      "▁중량": 4593,
      "▁상기": 4594,
      "▁실외": 4595,
      "▁최초": 4596,
      "▁동기": 4597,
      "▁말린": 4598,
      "▁달린": 4599,
      "▁추구": 4600,
      "▁재밌": 4601,
      "▁작물": 4602,
      "▁프리": 4603,
      "▁프랑스": 4604,
      "▁그래요": 4605,
      "▁데리": 4606,
      "▁통기성": 4607,
      "▁화요일": 4608,
      "▁십니다": 4609,
      "▁특수": 4610,
      "▁종사": 4611,
      "▁후드": 4612,
      "▁전화기": 4613,
      "▁크루": 4614,
      "▁반가": 4615,
      "▁노출": 4616,
      "▁명소": 4617,
      "▁호스": 4618,
      "▁볼륨": 4619,
      "▁타야": 4620,
      "▁타일": 4621,
      "▁색이": 4622,
      "▁색조": 4623,
      "▁점점": 4624,
      "▁열릴": 4625,
      "▁절반": 4626,
      "▁트레": 4627,
      "▁트렌": 4628,
      "▁트레이": 4629,
      "▁양념": 4630,
      "▁평범": 4631,
      "▁향후": 4632,
      "▁체결": 4633,
      "▁검정": 4634,
      "▁동물원": 4635,
      "▁페달": 4636,
      "▁페이스": 4637,
      "▁형식": 4638,
      "▁견딜": 4639,
      "▁복제": 4640,
      "▁컨퍼런스": 4641,
      "▁인터뷰": 4642,
      "▁키우": 4643,
      "▁해결책": 4644,
      "▁들어갈": 4645,
      "▁밀크": 4646,
      "▁팬데": 4647,
      "▁돌아올": 4648,
      "▁캐나다": 4649,
      "▁눈썹": 4650,
      "▁일어났": 4651,
      "▁골라": 4652,
      "▁떨어진": 4653,
      "▁필수품": 4654,
      "▁급여": 4655,
      "▁신용카드": 4656,
      "▁주차장": 4657,
      "▁달라요": 4658,
      "▁핑장": 4659,
      "▁당연히": 4660,
      "▁땅콩": 4661,
      "▁고마워요": 4662,
      "▁플레이어": 4663,
      "▁어때요": 4664,
      "▁명확히": 4665,
      "▁증명서": 4666,
      "▁셰프": 4667,
      "▁윤기": 4668,
      "▁미끄럼": 4669,
      "▁뜨거운": 4670,
      "▁스티커": 4671,
      "▁칭찬": 4672,
      "▁마침내": 4673,
      "▁덤벨": 4674,
      "▁탱크": 4675,
      "▁해상도": 4676,
      "▁패스트푸드": 4677,
      "▁불가사의": 4678,
      "er": 4679,
      "▁p": 4680,
      "▁값": 4681,
      "▁닿": 4682,
      "▁률": 4683,
      "▁멤": 4684,
      "▁붐": 4685,
      "▁뻔": 4686,
      "▁션": 4687,
      "▁씹": 4688,
      "▁엑": 4689,
      "▁웃": 4690,
      "▁웰": 4691,
      "거래": 4692,
      "네랄": 4693,
      "레이트": 4694,
      "바지": 4695,
      "아노": 4696,
      "어나": 4697,
      "어요": 4698,
      "여야": 4699,
      "용품": 4700,
      "우선": 4701,
      "전자": 4702,
      "테일": 4703,
      "티스트": 4704,
      "품질": 4705,
      "학교": 4706,
      "홍색": 4707,
      "▁가열": 4708,
      "▁어질": 4709,
      "▁제약": 4710,
      "▁고속": 4711,
      "▁고품질": 4712,
      "▁수건": 4713,
      "▁수의": 4714,
      "▁기원": 4715,
      "▁사건": 4716,
      "▁사촌": 4717,
      "▁아까": 4718,
      "▁아뇨": 4719,
      "▁아티스트": 4720,
      "▁입주": 4721,
      "▁보이스": 4722,
      "▁대가": 4723,
      "▁나눠": 4724,
      "▁나아": 4725,
      "▁여지": 4726,
      "▁적응": 4727,
      "▁소화": 4728,
      "▁와서": 4729,
      "▁않아": 4730,
      "▁정하": 4731,
      "▁오리": 4732,
      "▁오프": 4733,
      "▁부지": 4734,
      "▁스웨": 4735,
      "▁스위치": 4736,
      "▁바퀴": 4737,
      "▁바탕": 4738,
      "▁비료": 4739,
      "▁마운": 4740,
      "▁개설": 4741,
      "▁필름": 4742,
      "▁유발": 4743,
      "▁유선": 4744,
      "▁라지": 4745,
      "▁매물": 4746,
      "▁연령": 4747,
      "▁배경": 4748,
      "▁방해": 4749,
      "▁상단": 4750,
      "▁상환": 4751,
      "▁음반": 4752,
      "▁최우선": 4753,
      "▁무대": 4754,
      "▁계단": 4755,
      "▁장르": 4756,
      "▁조용": 4757,
      "▁된다면": 4758,
      "▁려고요": 4759,
      "▁성형": 4760,
      "▁분홍색": 4761,
      "▁미만": 4762,
      "▁미네랄": 4763,
      "▁350": 4764,
      "▁파괴": 4765,
      "▁파악": 4766,
      "▁파운데": 4767,
      "▁피아노": 4768,
      "▁디테일": 4769,
      "▁맞출": 4770,
      "▁너희": 4771,
      "▁손가락": 4772,
      "▁반대": 4773,
      "▁반복": 4774,
      "▁반지": 4775,
      "▁프로필": 4776,
      "▁프로그래": 4777,
      "▁목걸이": 4778,
      "▁언니": 4779,
      "▁레드": 4780,
      "▁치과": 4781,
      "▁표지": 4782,
      "▁점검": 4783,
      "▁트랙": 4784,
      "▁검증": 4785,
      "▁가져올": 4786,
      "▁첫날": 4787,
      "▁증권": 4788,
      "▁토너": 4789,
      "▁블로그": 4790,
      "▁복합": 4791,
      "▁독일": 4792,
      "▁즉각": 4793,
      "▁앞서": 4794,
      "▁줘야": 4795,
      "▁백업": 4796,
      "▁혼란": 4797,
      "▁워크": 4798,
      "▁운전자": 4799,
      "▁쿠폰": 4800,
      "▁초대장": 4801,
      "▁일어날": 4802,
      "▁힘든": 4803,
      "▁뭔지": 4804,
      "▁드라이버": 4805,
      "▁소유자": 4806,
      "▁SEO": 4807,
      "▁욕조": 4808,
      "▁싱글": 4809,
      "▁지지력": 4810,
      "▁스토어": 4811,
      "▁둘러보": 4812,
      "▁콜라": 4813,
      "▁하이킹": 4814,
      "▁가르쳐": 4815,
      "▁흐름": 4816,
      "▁밸브": 4817,
      "▁와이어": 4818,
      "▁모기지": 4819,
      "▁어떨까": 4820,
      "▁오른쪽": 4821,
      "▁스위트": 4822,
      "▁밀리리터": 4823,
      "▁돋보": 4824,
      "▁왼쪽": 4825,
      "▁공예품": 4826,
      "▁곁들": 4827,
      "▁서둘러": 4828,
      "▁파운데이션": 4829,
      "80": 4830,
      "▁N": 4831,
      "▁겉": 4832,
      "▁굽": 4833,
      "▁깎": 4834,
      "▁꿀": 4835,
      "▁떡": 4836,
      "▁랜": 4837,
      "▁량": 4838,
      "▁쌓": 4839,
      "▁율": 4840,
      "▁징": 4841,
      "▁찬": 4842,
      "▁캘": 4843,
      "▁팅": 4844,
      "▁푹": 4845,
      "네시아": 4846,
      "라마": 4847,
      "러그": 4848,
      "룹니다": 4849,
      "리드": 4850,
      "리콘": 4851,
      "먼트": 4852,
      "보카": 4853,
      "비닛": 4854,
      "사기": 4855,
      "어들": 4856,
      "워야": 4857,
      "크림": 4858,
      "티브": 4859,
      "파크": 4860,
      "폴리오": 4861,
      "피스": 4862,
      "▁는다": 4863,
      "▁에센": 4864,
      "▁가깝": 4865,
      "▁제곱": 4866,
      "▁그나": 4867,
      "▁그동안": 4868,
      "▁합니다만": 4869,
      "▁주입": 4870,
      "▁기뻤": 4871,
      "▁기숙": 4872,
      "▁기여": 4873,
      "▁아르": 4874,
      "▁아몬드": 4875,
      "▁아보카": 4876,
      "▁보였": 4877,
      "▁보완": 4878,
      "▁세균": 4879,
      "▁세제": 4880,
      "▁들으니": 4881,
      "▁거친": 4882,
      "▁모자": 4883,
      "▁소주": 4884,
      "▁감독": 4885,
      "▁자라": 4886,
      "▁오직": 4887,
      "▁부여": 4888,
      "▁스노": 4889,
      "▁스터": 4890,
      "▁바래요": 4891,
      "▁구경": 4892,
      "▁마리": 4893,
      "▁마일": 4894,
      "▁개국": 4895,
      "▁생긴": 4896,
      "▁서랍": 4897,
      "▁공용": 4898,
      "▁라이트": 4899,
      "▁실용": 4900,
      "▁실크": 4901,
      "▁실리콘": 4902,
      "▁무기": 4903,
      "▁계절": 4904,
      "▁동작": 4905,
      "▁조식": 4906,
      "▁한국식": 4907,
      "▁경비": 4908,
      "▁원인": 4909,
      "▁식별": 4910,
      "▁알려진": 4911,
      "▁32": 4912,
      "▁파라": 4913,
      "▁파운드": 4914,
      "▁두부": 4915,
      "▁발라": 4916,
      "▁발행": 4917,
      "▁걸렸": 4918,
      "▁걸어": 4919,
      "▁걸려요": 4920,
      "▁특성": 4921,
      "▁까다": 4922,
      "▁카테": 4923,
      "▁프로토": 4924,
      "▁언젠": 4925,
      "▁플러그": 4926,
      "▁명품": 4927,
      "▁친한": 4928,
      "▁호주": 4929,
      "▁호흡": 4930,
      "▁레벨": 4931,
      "▁타워": 4932,
      "▁타임": 4933,
      "▁버거": 4934,
      "▁돼서": 4935,
      "▁각자": 4936,
      "▁책자": 4937,
      "▁언제나": 4938,
      "▁휴일": 4939,
      "▁채권": 4940,
      "▁채우": 4941,
      "▁접착": 4942,
      "▁박테리아": 4943,
      "▁가져갈": 4944,
      "▁가져와": 4945,
      "▁지난달": 4946,
      "▁속성": 4947,
      "▁증거": 4948,
      "▁800": 4949,
      "▁태그": 4950,
      "▁왜냐": 4951,
      "▁팔레": 4952,
      "▁권한": 4953,
      "▁옵니다": 4954,
      "▁씨앗": 4955,
      "▁밀봉": 4956,
      "▁캐비닛": 4957,
      "▁산업용": 4958,
      "▁청소기": 4959,
      "▁항공기": 4960,
      "▁인도네시아": 4961,
      "▁책임자": 4962,
      "▁라이브": 4963,
      "▁망고": 4964,
      "▁뉴스": 4965,
      "▁베이컨": 4966,
      "▁ID": 4967,
      "▁탐색": 4968,
      "▁으니까요": 4969,
      "▁스토브": 4970,
      "▁물어볼": 4971,
      "▁핑크": 4972,
      "▁참가자": 4973,
      "▁테마파크": 4974,
      "▁포트폴리오": 4975,
      "▁돼지고기": 4976,
      "▁면도기": 4977,
      "▁컨설팅": 4978,
      "▁페이스트": 4979,
      "▁커뮤니케이션": 4980,
      "▁발명품": 4981,
      "▁폴리에스터": 4982,
      "▁깜짝": 4983,
      "▁한정판": 4984,
      "▁소지품": 4985,
      "▁장례식": 4986,
      "▁껍질": 4987,
      "▁스무디": 4988,
      "▁멤버": 4989,
      "▁아보카도": 4990,
      "▁갓": 4991,
      "▁갤": 4992,
      "▁냈": 4993,
      "▁딜": 4994,
      "▁볶": 4995,
      "▁왕": 4996,
      "▁콤": 4997,
      "▁텍": 4998,
      "▁핀": 4999,
      "▁헌": 5000,
      "마켓": 5001,
      "베이스": 5002,
      "비큐": 5003,
      "섀도": 5004,
      "소기": 5005,
      "소리": 5006,
      "잖아": 5007,
      "저나": 5008,
      "투스": 5009,
      "하면": 5010,
      "해야": 5011,
      "▁가시": 5012,
      "▁어두": 5013,
      "▁어딘": 5014,
      "▁어지": 5015,
      "▁수단": 5016,
      "▁주장": 5017,
      "▁기금": 5018,
      "▁지붕": 5019,
      "▁사라": 5020,
      "▁사망": 5021,
      "▁사찰": 5022,
      "▁할게": 5023,
      "▁으십시오": 5024,
      "▁보트": 5025,
      "▁나갈": 5026,
      "▁나지": 5027,
      "▁게스트": 5028,
      "▁으로써": 5029,
      "▁인하": 5030,
      "▁전동": 5031,
      "▁전면": 5032,
      "▁거품": 5033,
      "▁모피": 5034,
      "▁만났": 5035,
      "▁만료": 5036,
      "▁1000": 5037,
      "▁소설": 5038,
      "▁바비큐": 5039,
      "▁29": 5040,
      "▁구강": 5041,
      "▁구멍": 5042,
      "▁구역": 5043,
      "▁서버": 5044,
      "▁서빙": 5045,
      "▁유압": 5046,
      "▁유의": 5047,
      "▁유치": 5048,
      "▁유해": 5049,
      "▁매진": 5050,
      "▁중독": 5051,
      "▁신중": 5052,
      "▁신체": 5053,
      "▁신다고": 5054,
      "▁연어": 5055,
      "▁배고": 5056,
      "▁상대": 5057,
      "▁상징": 5058,
      "▁실래요": 5059,
      "▁장담": 5060,
      "▁장벽": 5061,
      "▁선수": 5062,
      "▁건데": 5063,
      "▁포인트": 5064,
      "▁번은": 5065,
      "▁번의": 5066,
      "▁파리": 5067,
      "▁용어": 5068,
      "▁피스": 5069,
      "▁업자": 5070,
      "▁걸쳐": 5071,
      "▁특허": 5072,
      "▁차가": 5073,
      "▁단어": 5074,
      "▁종합": 5075,
      "▁손해": 5076,
      "▁불평": 5077,
      "▁후면": 5078,
      "▁후원": 5079,
      "▁반영": 5080,
      "▁반입": 5081,
      "▁초밥": 5082,
      "▁테크": 5083,
      "▁강사": 5084,
      "▁날카": 5085,
      "▁색소": 5086,
      "▁이상한": 5087,
      "▁리스": 5088,
      "▁피부과": 5089,
      "케이크": 5090,
      "▁변형": 5091,
      "▁변환": 5092,
      "▁각도": 5093,
      "▁팀원": 5094,
      "▁청결": 5095,
      "▁평균": 5096,
      "▁채워": 5097,
      "▁600": 5098,
      "▁누락": 5099,
      "▁협의": 5100,
      "▁블러": 5101,
      "▁규제": 5102,
      "▁첨단": 5103,
      "▁난방": 5104,
      "▁러시아": 5105,
      "▁쉬워": 5106,
      "▁쉬워요": 5107,
      "▁들어간": 5108,
      "▁순위": 5109,
      "▁순조": 5110,
      "▁뛰어납니다": 5111,
      "▁냉각": 5112,
      "▁요금제": 5113,
      "▁잊어버": 5114,
      "▁범죄": 5115,
      "▁가까이": 5116,
      "▁냄비": 5117,
      "▁봉투": 5118,
      "▁km": 5119,
      "▁GB": 5120,
      "▁딸기": 5121,
      "▁납부": 5122,
      "▁갑니다": 5123,
      "▁IT": 5124,
      "▁PC": 5125,
      "▁균일": 5126,
      "▁견적서": 5127,
      "▁아름다움": 5128,
      "▁움직임": 5129,
      "▁촉촉": 5130,
      "▁잠재력": 5131,
      "▁데려가": 5132,
      "▁히터": 5133,
      "▁봅시다": 5134,
      "▁12345": 5135,
      "▁으셔도": 5136,
      "▁커뮤니티": 5137,
      "스테이": 5138,
      "▁압축기": 5139,
      "▁킬로그램": 5140,
      "▁템플스테이": 5141,
      "▁헬멧": 5142,
      "▁신축성": 5143,
      "▁슈퍼마켓": 5144,
      "tion": 5145,
      "▁트레일러": 5146,
      "▁돋보이": 5147,
      "▁곁들인": 5148,
      "▁그나저나": 5149,
      "▁기숙사": 5150,
      "▁카테고리": 5151,
      "▁언젠가": 5152,
      "▁왜냐하면": 5153,
      "▁팔레트": 5154,
      "ar": 5155,
      "▁꼼": 5156,
      "▁눌": 5157,
      "▁딥": 5158,
      "▁딩": 5159,
      "▁랩": 5160,
      "▁빗": 5161,
      "▁셜": 5162,
      "▁칸": 5163,
      "▁틱": 5164,
      "▁퓨": 5165,
      "▁혀": 5166,
      "가루": 5167,
      "구니": 5168,
      "도체": 5169,
      "드로이드": 5170,
      "디션": 5171,
      "라색": 5172,
      "만간": 5173,
      "베이터": 5174,
      "센트": 5175,
      "이식": 5176,
      "이즈": 5177,
      "입자": 5178,
      "젯밤": 5179,
      "져서": 5180,
      "코드": 5181,
      "테이너": 5182,
      "풍기": 5183,
      "합니다": 5184,
      "▁가로": 5185,
      "▁가리": 5186,
      "▁가실": 5187,
      "▁어른": 5188,
      "▁어리": 5189,
      "▁어젯밤": 5190,
      "▁수신": 5191,
      "▁수십": 5192,
      "▁주류": 5193,
      "▁주유": 5194,
      "▁기재": 5195,
      "▁지났": 5196,
      "▁지시": 5197,
      "▁사지": 5198,
      "▁도난": 5199,
      "▁도입": 5200,
      "▁할당": 5201,
      "▁면접": 5202,
      "▁모시": 5203,
      "▁모으": 5204,
      "▁드라마": 5205,
      "▁여서": 5206,
      "▁우드": 5207,
      "▁일종": 5208,
      "▁했으며": 5209,
      "▁예금": 5210,
      "▁안드로이드": 5211,
      "▁위원": 5212,
      "▁위함": 5213,
      "▁바랄": 5214,
      "▁바쁜": 5215,
      "▁바닐라": 5216,
      "▁2000": 5217,
      "▁회색": 5218,
      "▁개요": 5219,
      "▁생강": 5220,
      "▁생물": 5221,
      "▁생생": 5222,
      "▁공격": 5223,
      "▁공책": 5224,
      "▁라디오": 5225,
      "▁매월": 5226,
      "▁중고": 5227,
      "▁때로": 5228,
      "▁연설": 5229,
      "▁배정": 5230,
      "▁배출": 5231,
      "▁관찰": 5232,
      "▁계량": 5233,
      "▁동남": 5234,
      "▁장인": 5235,
      "▁선두": 5236,
      "▁조기": 5237,
      "▁조만간": 5238,
      "▁경계": 5239,
      "▁물리": 5240,
      "▁포도": 5241,
      "▁원격": 5242,
      "▁원형": 5243,
      "▁추억": 5244,
      "▁함량": 5245,
      "▁미디": 5246,
      "▁파워": 5247,
      "▁설문": 5248,
      "▁통로": 5249,
      "▁통증": 5250,
      "▁발휘": 5251,
      "▁그러므로": 5252,
      "▁차원": 5253,
      "▁차트": 5254,
      "▁단독": 5255,
      "▁후기": 5256,
      "▁후회": 5257,
      "▁크로": 5258,
      "▁목요일": 5259,
      "▁플레이트": 5260,
      "▁참치": 5261,
      "▁메탈": 5262,
      "▁명세": 5263,
      "▁테일": 5264,
      "▁패치": 5265,
      "▁해서요": 5266,
      "▁등반": 5267,
      "▁응원": 5268,
      "▁코인": 5269,
      "▁변호사": 5270,
      "▁커튼": 5271,
      "▁기술자": 5272,
      "▁양말": 5273,
      "▁평화": 5274,
      "▁접이식": 5275,
      "▁향기": 5276,
      "▁201": 5277,
      "▁근육": 5278,
      "▁담요": 5279,
      "▁베드": 5280,
      "▁전문점": 5281,
      "▁120": 5282,
      "▁느꼈": 5283,
      "▁컨테이너": 5284,
      "▁창출": 5285,
      "▁콘도": 5286,
      "▁참석자": 5287,
      "▁권리": 5288,
      "▁보여요": 5289,
      "▁도시락": 5290,
      "▁스트립": 5291,
      "▁스테이": 5292,
      "▁렌트": 5293,
      "▁워터": 5294,
      "▁데이터베이스": 5295,
      "▁압류": 5296,
      "▁드려야": 5297,
      "▁터빈": 5298,
      "▁탈모": 5299,
      "▁가까워": 5300,
      "▁간단히": 5301,
      "▁넘어": 5302,
      "▁태양열": 5303,
      "▁계산기": 5304,
      "▁떠오르": 5305,
      "▁빵집": 5306,
      "▁BPA": 5307,
      "▁타이머": 5308,
      "▁VR": 5309,
      "▁짜증": 5310,
      "▁노래방": 5311,
      "▁챙겨": 5312,
      "▁챙기": 5313,
      "▁폐쇄": 5314,
      "▁푸드": 5315,
      "▁실험실": 5316,
      "▁코코아": 5317,
      "▁핸드폰": 5318,
      "▁상관없이": 5319,
      "▁꺼내": 5320,
      "▁널리": 5321,
      "▁멈추": 5322,
      "▁플래시": 5323,
      "▁이루어지": 5324,
      "▁뒷면": 5325,
      "▁가전제품": 5326,
      "▁밑창": 5327,
      "▁올리브": 5328,
      "▁셋째": 5329,
      "▁고등학교": 5330,
      "▁원자력": 5331,
      "▁원한다면": 5332,
      "▁뿌리": 5333,
      "▁고추장": 5334,
      "▁대행사": 5335,
      "▁숨겨진": 5336,
      "▁엘리": 5337,
      "▁꼼꼼": 5338,
      "VC": 5339,
      "▁갱": 5340,
      "▁겹": 5341,
      "▁듀": 5342,
      "▁랙": 5343,
      "▁맨": 5344,
      "▁묵": 5345,
      "▁뱅": 5346,
      "▁까요": 5347,
      "▁램프": 5348,
      "글라스": 5349,
      "꺼운": 5350,
      "니아": 5351,
      "독성": 5352,
      "라리": 5353,
      "렉트": 5354,
      "려서": 5355,
      "려야": 5356,
      "로우": 5357,
      "린더": 5358,
      "맞춤": 5359,
      "발유": 5360,
      "방향": 5361,
      "서비스": 5362,
      "성맞춤": 5363,
      "언트": 5364,
      "이커": 5365,
      "정기": 5366,
      "징어": 5367,
      "차인": 5368,
      "치기": 5369,
      "튀김": 5370,
      "트남": 5371,
      "파이": 5372,
      "포트": 5373,
      "▁이불": 5374,
      "▁이온": 5375,
      "▁는다면": 5376,
      "▁하저": 5377,
      "▁어깨": 5378,
      "▁어터": 5379,
      "▁의무": 5380,
      "▁제빵": 5381,
      "▁제형": 5382,
      "▁고도": 5383,
      "▁해킹": 5384,
      "▁주민": 5385,
      "▁저번": 5386,
      "▁저자": 5387,
      "▁지문": 5388,
      "▁지출": 5389,
      "▁사례": 5390,
      "▁사안": 5391,
      "▁시에": 5392,
      "▁시코": 5393,
      "▁시행": 5394,
      "▁입고": 5395,
      "▁도서": 5396,
      "▁다녀": 5397,
      "▁다룰": 5398,
      "▁다룹니다": 5399,
      "▁대답": 5400,
      "▁로비": 5401,
      "▁나노": 5402,
      "▁나열": 5403,
      "▁나이지": 5404,
      "▁인구": 5405,
      "▁인천": 5406,
      "▁전적": 5407,
      "▁거대": 5408,
      "▁거절": 5409,
      "▁거쳐": 5410,
      "▁거쳤": 5411,
      "▁거치": 5412,
      "▁드셨": 5413,
      "▁알람": 5414,
      "▁알림": 5415,
      "▁알맞": 5416,
      "▁알약": 5417,
      "▁일원": 5418,
      "▁일자": 5419,
      "▁만화": 5420,
      "▁예비": 5421,
      "▁예쁜": 5422,
      "▁안감": 5423,
      "▁안성맞춤": 5424,
      "▁소모": 5425,
      "▁당국": 5426,
      "▁자르": 5427,
      "▁정통": 5428,
      "▁오버": 5429,
      "▁오실": 5430,
      "▁오징어": 5431,
      "▁부를": 5432,
      "▁부문": 5433,
      "▁부속": 5434,
      "▁부식": 5435,
      "▁부정": 5436,
      "▁바가": 5437,
      "▁바삭": 5438,
      "▁비스": 5439,
      "▁비전": 5440,
      "▁더블": 5441,
      "▁생식": 5442,
      "▁서두": 5443,
      "▁서서": 5444,
      "▁유도": 5445,
      "▁유망": 5446,
      "▁공지": 5447,
      "▁매달": 5448,
      "▁중점": 5449,
      "▁연말": 5450,
      "▁연중": 5451,
      "▁연출": 5452,
      "▁관세": 5453,
      "▁관절": 5454,
      "▁상세": 5455,
      "▁상승": 5456,
      "▁상거래": 5457,
      "▁실시": 5458,
      "▁동생": 5459,
      "▁선적": 5460,
      "▁선글라스": 5461,
      "▁건성": 5462,
      "▁물병": 5463,
      "▁물체": 5464,
      "▁포기": 5465,
      "▁원사": 5466,
      "▁성사": 5467,
      "▁추후": 5468,
      "▁분기": 5469,
      "▁미칩니다": 5470,
      "▁36": 5471,
      "▁번들": 5472,
      "▁파산": 5473,
      "▁찾기": 5474,
      "▁통역": 5475,
      "▁5678": 5476,
      "▁두드": 5477,
      "▁두꺼운": 5478,
      "▁그러니까": 5479,
      "▁영국": 5480,
      "▁영리": 5481,
      "▁차례": 5482,
      "▁현명": 5483,
      "▁맞추": 5484,
      "▁단기": 5485,
      "▁불안": 5486,
      "▁후추": 5487,
      "▁크레": 5488,
      "▁여행용": 5489,
      "▁목재": 5490,
      "▁노란색": 5491,
      "▁선택지": 5492,
      "▁사업가": 5493,
      "▁투숙": 5494,
      "▁간략": 5495,
      "▁살균": 5496,
      "▁살아": 5497,
      "▁살게요": 5498,
      "▁관심사": 5499,
      "▁교실": 5500,
      "▁타지": 5501,
      "▁충성": 5502,
      "▁요리법": 5503,
      "▁리튬": 5504,
      "▁패스": 5505,
      "▁열정": 5506,
      "▁기다렸": 5507,
      "▁남지": 5508,
      "▁학기": 5509,
      "▁높일": 5510,
      "▁올림": 5511,
      "▁겁니까": 5512,
      "▁양해": 5513,
      "▁평판": 5514,
      "▁월간": 5515,
      "▁임차인": 5516,
      "▁접속": 5517,
      "▁접촉": 5518,
      "▁클리": 5519,
      "▁클립": 5520,
      "▁클라이": 5521,
      "▁담보": 5522,
      "▁베개": 5523,
      "▁베트남": 5524,
      "▁계약금": 5525,
      "▁행사장": 5526,
      "▁72": 5527,
      "▁천장": 5528,
      "▁인지도": 5529,
      "▁CEO": 5530,
      "▁허락": 5531,
      "▁즉석": 5532,
      "▁숙련": 5533,
      "▁전기차": 5534,
      "▁들어올": 5535,
      "▁스타일리": 5536,
      "▁밀리미": 5537,
      "▁빌딩": 5538,
      "▁돌아갈": 5539,
      "▁돌아왔": 5540,
      "▁녹차": 5541,
      "▁풍미": 5542,
      "▁낮추": 5543,
      "▁AC": 5544,
      "▁슬롯": 5545,
      "▁떨어지": 5546,
      "▁국내외": 5547,
      "▁져요": 5548,
      "▁떠날": 5549,
      "▁흡연": 5550,
      "▁스틸로": 5551,
      "▁밥솥": 5552,
      "▁라이프": 5553,
      "▁룸서비스": 5554,
      "▁프로세서": 5555,
      "▁극대": 5556,
      "▁탐험": 5557,
      "▁존경": 5558,
      "▁존중": 5559,
      "▁육류": 5560,
      "▁혼합물": 5561,
      "▁차단제": 5562,
      "▁머무를": 5563,
      "▁군데": 5564,
      "▁벤처": 5565,
      "▁런던": 5566,
      "▁일으키": 5567,
      "▁파우더": 5568,
      "▁묘목": 5569,
      "▁휘발유": 5570,
      "▁두려워": 5571,
      "▁게이밍": 5572,
      "▁정수기": 5573,
      "▁불량품": 5574,
      "▁크루즈": 5575,
      "▁마운트": 5576,
      "▁프로그래밍": 5577,
      "▁눌러": 5578,
      "▁위함입니다": 5579,
      "▁동남아": 5580,
      "▁엘리베이터": 5581,
      "▁갱신": 5582,
      "▁나이지리아": 5583,
      "▁클라이언트": 5584,
      "▁밀리미터": 5585,
      "FT": 5586,
      "HK": 5587,
      "ation": 5588,
      "it": 5589,
      "▁낸": 5590,
      "▁락": 5591,
      "▁력": 5592,
      "▁빙": 5593,
      "▁깁니다": 5594,
      "게티": 5595,
      "다니": 5596,
      "동생": 5597,
      "랜차": 5598,
      "러리": 5599,
      "로지": 5600,
      "베큐": 5601,
      "스프": 5602,
      "저귀": 5603,
      "져요": 5604,
      "지능": 5605,
      "체국": 5606,
      "체인": 5607,
      "캐너": 5608,
      "크리": 5609,
      "티지": 5610,
      "▁이따": 5611,
      "▁하단": 5612,
      "▁가꾸": 5613,
      "▁가발": 5614,
      "▁의뢰": 5615,
      "▁의학": 5616,
      "▁수천": 5617,
      "▁수치": 5618,
      "▁수요일": 5619,
      "▁합법": 5620,
      "▁한도": 5621,
      "▁주간": 5622,
      "▁주선": 5623,
      "▁저작": 5624,
      "▁저쪽": 5625,
      "▁지성": 5626,
      "▁사시": 5627,
      "▁시야": 5628,
      "▁시점": 5629,
      "▁아셨": 5630,
      "▁도보": 5631,
      "▁도심": 5632,
      "▁도자기": 5633,
      "▁다루": 5634,
      "▁다용": 5635,
      "▁보라색": 5636,
      "▁세정": 5637,
      "▁세입자": 5638,
      "▁대응": 5639,
      "▁나올": 5640,
      "▁인력": 5641,
      "▁인분": 5642,
      "▁인수": 5643,
      "▁모이": 5644,
      "▁우체국": 5645,
      "▁일일": 5646,
      "▁했잖아": 5647,
      "▁만두": 5648,
      "▁예쁘": 5649,
      "▁소속": 5650,
      "▁와야": 5651,
      "▁감각": 5652,
      "▁자석": 5653,
      "▁위탁": 5654,
      "▁정시": 5655,
      "▁정용": 5656,
      "▁정화": 5657,
      "▁스캔": 5658,
      "▁스캐너": 5659,
      "▁바꿔": 5660,
      "▁바인": 5661,
      "▁바베큐": 5662,
      "▁비치": 5663,
      "▁28": 5664,
      "▁사용법": 5665,
      "▁요점": 5666,
      "▁구리": 5667,
      "▁구현": 5668,
      "▁내로": 5669,
      "▁마른": 5670,
      "▁마법": 5671,
      "▁마스": 5672,
      "▁마커": 5673,
      "▁개방": 5674,
      "▁생겨": 5675,
      "▁공구": 5676,
      "▁공인": 5677,
      "▁매번": 5678,
      "▁관점": 5679,
      "▁실버": 5680,
      "▁동아리": 5681,
      "▁받침": 5682,
      "▁선도": 5683,
      "▁말라고": 5684,
      "▁야구": 5685,
      "▁경보": 5686,
      "▁원할": 5687,
      "▁성과": 5688,
      "▁먹이": 5689,
      "▁추운": 5690,
      "▁될지": 5691,
      "▁재봉": 5692,
      "▁분말": 5693,
      "▁미백": 5694,
      "▁프랜차": 5695,
      "▁피로": 5696,
      "▁데모": 5697,
      "▁두렵": 5698,
      "▁화질": 5699,
      "▁걸린": 5700,
      "▁가장자리": 5701,
      "▁디젤": 5702,
      "▁으면서": 5703,
      "▁직면": 5704,
      "▁진동": 5705,
      "▁진지": 5706,
      "▁카레": 5707,
      "▁카펫": 5708,
      "▁반도체": 5709,
      "▁품종": 5710,
      "▁노인": 5711,
      "▁노점": 5712,
      "▁노화": 5713,
      "▁메이커": 5714,
      "▁초청": 5715,
      "▁친애": 5716,
      "▁호수": 5717,
      "▁호의": 5718,
      "▁42": 5719,
      "▁볼까": 5720,
      "▁볼까요": 5721,
      "▁브라우": 5722,
      "▁충돌": 5723,
      "▁열립니다": 5724,
      "▁산책": 5725,
      "▁학회": 5726,
      "▁방문객": 5727,
      "▁방문자": 5728,
      "▁통해서": 5729,
      "▁코어": 5730,
      "▁코트": 5731,
      "▁변동": 5732,
      "▁절감": 5733,
      "▁청중": 5734,
      "▁커팅": 5735,
      "▁양파": 5736,
      "▁양방향": 5737,
      "▁채용": 5738,
      "▁활기": 5739,
      "▁취할": 5740,
      "▁잠수": 5741,
      "▁체계": 5742,
      "▁사이버": 5743,
      "▁베어링": 5744,
      "▁전문의": 5745,
      "▁계약자": 5746,
      "▁부드러": 5747,
      "▁토양": 5748,
      "▁75": 5749,
      "▁티슈": 5750,
      "▁기업가": 5751,
      "▁컴포트": 5752,
      "▁독서": 5753,
      "▁독자": 5754,
      "▁봐도": 5755,
      "▁대출금": 5756,
      "▁쉬울": 5757,
      "▁순한": 5758,
      "▁어려웠": 5759,
      "▁스타일링": 5760,
      "▁놓칠": 5761,
      "▁녹화": 5762,
      "▁드려도": 5763,
      "▁일어난": 5764,
      "▁그걸로": 5765,
      "▁건조기": 5766,
      "▁섬세": 5767,
      "▁슬림": 5768,
      "▁대학교": 5769,
      "▁뒤집": 5770,
      "▁구독자": 5771,
      "▁영양가": 5772,
      "▁접근성": 5773,
      "▁폴더": 5774,
      "▁베이커": 5775,
      "▁BHK": 5776,
      "▁PVC": 5777,
      "▁희귀": 5778,
      "▁고무로": 5779,
      "▁조리법": 5780,
      "▁감자튀김": 5781,
      "▁Kor": 5782,
      "▁웨이터": 5783,
      "▁젤리": 5784,
      "▁물어봐도": 5785,
      "▁텐데": 5786,
      "▁텐데요": 5787,
      "▁게시물": 5788,
      "▁둘러싸": 5789,
      "▁예술가": 5790,
      "▁스파게티": 5791,
      "▁경기장": 5792,
      "▁인공지능": 5793,
      "▁블루투스": 5794,
      "▁올바르": 5795,
      "▁미끄러지": 5796,
      "▁빈티지": 5797,
      "▁쓰레기통": 5798,
      "▁나타나": 5799,
      "▁흘러": 5800,
      "스테르": 5801,
      "▁스케이트": 5802,
      "▁한식당": 5803,
      "▁아프리카": 5804,
      "▁카트리지": 5805,
      "▁GPS": 5806,
      "▁무서워": 5807,
      "▁햇빛": 5808,
      "▁쿨러": 5809,
      "▁트렌드": 5810,
      "▁엑스": 5811,
      "▁NFT": 5812,
      "▁에센셜": 5813,
      "▁딜러": 5814,
      "▁헌신": 5815,
      "▁아름다움을": 5816,
      "▁올림픽": 5817,
      "▁프랜차이즈": 5818,
      "al": 5819,
      "nt": 5820,
      "ou": 5821,
      "▁겟": 5822,
      "▁깃": 5823,
      "▁란": 5824,
      "▁엽": 5825,
      "▁짝": 5826,
      "▁춤": 5827,
      "▁쾌": 5828,
      "▁펫": 5829,
      "구요": 5830,
      "꼭지": 5831,
      "니즘": 5832,
      "다리": 5833,
      "대기": 5834,
      "도그": 5835,
      "뜨리": 5836,
      "라이트": 5837,
      "레탄": 5838,
      "멘트": 5839,
      "무휴": 5840,
      "미료": 5841,
      "바이": 5842,
      "받이": 5843,
      "베리": 5844,
      "브리드": 5845,
      "빔밥": 5846,
      "사각": 5847,
      "셔야": 5848,
      "스팅": 5849,
      "스턴트": 5850,
      "아몬드": 5851,
      "에요": 5852,
      "제한": 5853,
      "찰력": 5854,
      "충제": 5855,
      "춰야": 5856,
      "침반": 5857,
      "카라": 5858,
      "큐어": 5859,
      "크릴": 5860,
      "호가": 5861,
      "▁이외": 5862,
      "▁습기": 5863,
      "▁가도": 5864,
      "▁가락": 5865,
      "▁가용": 5866,
      "▁가위": 5867,
      "▁의논": 5868,
      "▁의도": 5869,
      "▁제때": 5870,
      "▁제목": 5871,
      "▁고장": 5872,
      "▁고전": 5873,
      "▁수석": 5874,
      "▁수표": 5875,
      "▁그레이": 5876,
      "▁합병": 5877,
      "▁한계": 5878,
      "▁한때": 5879,
      "▁주위": 5880,
      "▁주철": 5881,
      "▁저널": 5882,
      "▁저항": 5883,
      "▁기초": 5884,
      "▁기저귀": 5885,
      "▁지가": 5886,
      "▁지키": 5887,
      "▁사내": 5888,
      "▁사서": 5889,
      "▁사인": 5890,
      "▁시럽": 5891,
      "▁시절": 5892,
      "▁아닐": 5893,
      "▁아크릴": 5894,
      "▁도어": 5895,
      "▁할머니": 5896,
      "▁보온": 5897,
      "▁보존": 5898,
      "▁대사": 5899,
      "▁로드": 5900,
      "▁나침반": 5901,
      "▁되찾": 5902,
      "▁인근": 5903,
      "▁인스턴트": 5904,
      "▁과제": 5905,
      "▁전구": 5906,
      "▁전채": 5907,
      "▁모공": 5908,
      "▁모서리": 5909,
      "▁여야": 5910,
      "▁적혀": 5911,
      "▁일한": 5912,
      "▁일렉트": 5913,
      "▁만일": 5914,
      "▁안약": 5915,
      "▁소득": 5916,
      "▁소량": 5917,
      "▁당했": 5918,
      "▁당황": 5919,
      "▁감동": 5920,
      "▁위협": 5921,
      "▁정식": 5922,
      "▁정착": 5923,
      "▁오너": 5924,
      "▁오이": 5925,
      "▁오해": 5926,
      "▁오리지": 5927,
      "▁부끄": 5928,
      "▁바쁘": 5929,
      "▁바지": 5930,
      "▁비나": 5931,
      "▁비롯": 5932,
      "▁비어": 5933,
      "▁비빔밥": 5934,
      "▁회수": 5935,
      "▁구부": 5936,
      "▁구석": 5937,
      "▁내고": 5938,
      "▁내놓": 5939,
      "▁내렸": 5940,
      "▁내릴": 5941,
      "▁내열": 5942,
      "▁마모": 5943,
      "▁마이": 5944,
      "▁마켓": 5945,
      "▁개봉": 5946,
      "▁더니": 5947,
      "▁생존": 5948,
      "▁유람": 5949,
      "▁공공": 5950,
      "▁중소기": 5951,
      "▁신부": 5952,
      "▁연사": 5953,
      "▁상호": 5954,
      "▁음주": 5955,
      "▁무례": 5956,
      "▁무독성": 5957,
      "▁무제한": 5958,
      "▁동전": 5959,
      "▁장거리": 5960,
      "▁선박": 5961,
      "▁건식": 5962,
      "▁조개": 5963,
      "▁조항": 5964,
      "▁경고": 5965,
      "▁경치": 5966,
      "▁성격": 5967,
      "▁성원": 5968,
      "▁그리워": 5969,
      "▁추세": 5970,
      "▁재판": 5971,
      "▁분당": 5972,
      "▁분해": 5973,
      "▁미러": 5974,
      "▁미학": 5975,
      "▁360": 5976,
      "▁번만": 5977,
      "▁번창": 5978,
      "▁피크": 5979,
      "▁피클": 5980,
      "▁설득": 5981,
      "▁통지": 5982,
      "▁통한": 5983,
      "▁두껍": 5984,
      "▁화려": 5985,
      "▁판단": 5986,
      "▁단맛": 5987,
      "▁손쉽": 5988,
      "▁불교": 5989,
      "▁불리": 5990,
      "▁후속": 5991,
      "▁약물": 5992,
      "▁반사": 5993,
      "▁반짝": 5994,
      "▁사업주": 5995,
      "▁초코": 5996,
      "▁간절": 5997,
      "▁레코드": 5998,
      "▁강요": 5999,
      "▁강하": 6000,
      "▁타올": 6001,
      "▁색깔": 6002,
      "▁리드": 6003,
      "▁리소": 6004,
      "▁열렬": 6005,
      "▁남겨": 6006,
      "▁응급": 6007,
      "▁산악": 6008,
      "▁산화": 6009,
      "▁학업": 6010,
      "▁변하": 6011,
      "▁외장": 6012,
      "▁본인": 6013,
      "▁본질": 6014,
      "▁평일": 6015,
      "▁채울": 6016,
      "▁월별": 6017,
      "▁접목": 6018,
      "▁접종": 6019,
      "▁클로": 6020,
      "▁취득": 6021,
      "▁작업자": 6022,
      "▁체류": 6023,
      "▁65": 6024,
      "▁광학": 6025,
      "▁가져다": 6026,
      "▁담긴": 6027,
      "▁페퍼": 6028,
      "▁베리": 6029,
      "▁형성": 6030,
      "▁견인": 6031,
      "▁증강": 6032,
      "▁농담": 6033,
      "▁음료수": 6034,
      "▁복구": 6035,
      "▁복도": 6036,
      "▁심하": 6037,
      "▁콘센트": 6038,
      "▁보관함": 6039,
      "▁CP": 6040,
      "▁Com": 6041,
      "▁엔드": 6042,
      "▁쇼룸": 6043,
      "▁들어왔": 6044,
      "▁99": 6045,
      "▁밀가루": 6046,
      "▁다이아몬드": 6047,
      "▁법인": 6048,
      "▁잔액": 6049,
      "▁캠퍼": 6050,
      "▁캠프": 6051,
      "▁센트": 6052,
      "▁워시": 6053,
      "▁풍력": 6054,
      "▁연구원": 6055,
      "▁아서요": 6056,
      "▁염려": 6057,
      "▁벌레": 6058,
      "▁110": 6059,
      "▁발전소": 6060,
      "▁깨달": 6061,
      "▁꽃병": 6062,
      "▁밝기": 6063,
      "▁영양소": 6064,
      "▁늘리": 6065,
      "▁늘어": 6066,
      "▁탐지": 6067,
      "▁끌어": 6068,
      "▁레이어": 6069,
      "▁스토리지": 6070,
      "▁물어봐야": 6071,
      "▁찾아오": 6072,
      "▁대리인": 6073,
      "▁데려다": 6074,
      "▁라서요": 6075,
      "▁장기간": 6076,
      "▁둘러볼": 6077,
      "▁머무르": 6078,
      "▁덮개": 6079,
      "▁홀리": 6080,
      "▁하이브리드": 6081,
      "▁상관없": 6082,
      "▁억제": 6083,
      "▁흔한": 6084,
      "▁블록체인": 6085,
      "▁으셔야": 6086,
      "▁일으킬": 6087,
      "▁이루어집니다": 6088,
      "▁에이전시": 6089,
      "▁HD": 6090,
      "▁흘리": 6091,
      "▁번거롭": 6092,
      "▁펀드": 6093,
      "▁펀딩": 6094,
      "▁핫도그": 6095,
      "▁미용실": 6096,
      "▁두려움": 6097,
      "▁옮기": 6098,
      "▁황동": 6099,
      "▁아웃렛": 6100,
      "▁게이머": 6101,
      "▁지리학": 6102,
      "▁받아들이": 6103,
      "▁건너편": 6104,
      "▁천만에요": 6105,
      "▁미식가": 6106,
      "▁뮤지": 6107,
      "▁캘리": 6108,
      "▁제곱미터": 6109,
      "▁경비원": 6110,
      "▁가져와야": 6111,
      "▁볶음": 6112,
      "▁어두운": 6113,
      "▁차가운": 6114,
      "▁주유소": 6115,
      "▁미디엄": 6116,
      "▁뱅킹": 6117,
      "▁도서관": 6118,
      "▁서두르": 6119,
      "▁연중무휴": 6120,
      "▁투숙객": 6121,
      "▁다용도": 6122,
      "▁Korea": 6123,
      "▁오리지널": 6124,
      "▁중소기업": 6125,
      "ch": 6126,
      "pan": 6127,
      "▁O": 6128,
      "▁끄": 6129,
      "▁끔": 6130,
      "▁냅": 6131,
      "▁숍": 6132,
      "▁싼": 6133,
      "▁찌": 6134,
      "꿈치": 6135,
      "너스": 6136,
      "넥터": 6137,
      "다지": 6138,
      "데이": 6139,
      "라기": 6140,
      "레싱": 6141,
      "로에": 6142,
      "론트": 6143,
      "리안": 6144,
      "막이": 6145,
      "분해": 6146,
      "브릭": 6147,
      "브먼트": 6148,
      "생제": 6149,
      "수기": 6150,
      "전등": 6151,
      "체어": 6152,
      "티크": 6153,
      "현실": 6154,
      "화점": 6155,
      "황색": 6156,
      "▁이달": 6157,
      "▁이득": 6158,
      "▁이르": 6159,
      "▁이색": 6160,
      "▁이쪽": 6161,
      "▁이하": 6162,
      "▁에디션": 6163,
      "▁을래": 6164,
      "▁을수록": 6165,
      "▁가드": 6166,
      "▁가루": 6167,
      "▁가수": 6168,
      "▁은은": 6169,
      "▁어면": 6170,
      "▁의상": 6171,
      "▁제도": 6172,
      "▁제시간": 6173,
      "▁그램": 6174,
      "▁그다지": 6175,
      "▁합류": 6176,
      "▁해집니다": 6177,
      "▁해로운": 6178,
      "▁주어": 6179,
      "▁주어진": 6180,
      "▁주황색": 6181,
      "▁저울": 6182,
      "▁기실": 6183,
      "▁지기": 6184,
      "▁지루": 6185,
      "▁지름": 6186,
      "▁사택": 6187,
      "▁시그": 6188,
      "▁시민": 6189,
      "▁아시": 6190,
      "▁아세요": 6191,
      "▁입맛": 6192,
      "▁도왔": 6193,
      "▁할수록": 6194,
      "▁으라고": 6195,
      "▁보인": 6196,
      "▁보너스": 6197,
      "▁세기": 6198,
      "▁세로": 6199,
      "▁대접": 6200,
      "▁들려": 6201,
      "▁들여": 6202,
      "▁게이트": 6203,
      "▁면역": 6204,
      "▁인조": 6205,
      "▁전식": 6206,
      "▁전하": 6207,
      "▁거두": 6208,
      "▁모른": 6209,
      "▁모션": 6210,
      "▁모아": 6211,
      "▁드럼": 6212,
      "▁여동생": 6213,
      "▁알지": 6214,
      "▁알로에": 6215,
      "▁우산": 6216,
      "▁우연": 6217,
      "▁일시": 6218,
      "▁일까요": 6219,
      "▁안면": 6220,
      "▁소켓": 6221,
      "▁당하": 6222,
      "▁감당": 6223,
      "▁감싸": 6224,
      "▁감안": 6225,
      "▁위장": 6226,
      "▁위층": 6227,
      "▁정교": 6228,
      "▁정비": 6229,
      "▁오락": 6230,
      "▁오토": 6231,
      "▁스카": 6232,
      "▁귀국": 6233,
      "▁비난": 6234,
      "▁요건": 6235,
      "▁요인": 6236,
      "▁마주": 6237,
      "▁마진": 6238,
      "▁마카": 6239,
      "▁개조": 6240,
      "▁없애": 6241,
      "▁생분해": 6242,
      "▁서점": 6243,
      "▁유체": 6244,
      "▁공제": 6245,
      "▁신사": 6246,
      "▁방사": 6247,
      "▁방출": 6248,
      "▁상주": 6249,
      "▁실린더": 6250,
      "▁무시": 6251,
      "▁무브먼트": 6252,
      "▁안녕히": 6253,
      "▁장시간": 6254,
      "▁선크림": 6255,
      "▁조종": 6256,
      "▁된다": 6257,
      "▁된장": 6258,
      "▁야생": 6259,
      "▁포크": 6260,
      "▁원두": 6261,
      "▁추정": 6262,
      "▁될까": 6263,
      "▁미쳤": 6264,
      "▁프론트": 6265,
      "▁결론": 6266,
      "▁당사자": 6267,
      "▁피할": 6268,
      "▁설레": 6269,
      "▁업로드": 6270,
      "▁통찰력": 6271,
      "▁두께": 6272,
      "▁화가": 6273,
      "▁화분": 6274,
      "▁발달": 6275,
      "▁영구": 6276,
      "▁차갑": 6277,
      "▁차고": 6278,
      "▁직관": 6279,
      "▁카피": 6280,
      "▁단열": 6281,
      "▁온스": 6282,
      "▁손질": 6283,
      "▁손전등": 6284,
      "▁줄어들": 6285,
      "▁항산": 6286,
      "▁항생제": 6287,
      "▁얼른": 6288,
      "▁노선": 6289,
      "▁사업체": 6290,
      "▁초안": 6291,
      "▁환기": 6292,
      "▁출신": 6293,
      "▁간장": 6294,
      "▁테니스": 6295,
      "▁강남": 6296,
      "▁교회": 6297,
      "▁타본": 6298,
      "▁날개": 6299,
      "▁수도꼭지": 6300,
      "▁금방": 6301,
      "▁패딩": 6302,
      "▁패브릭": 6303,
      "▁등받이": 6304,
      "▁열린": 6305,
      "▁산호": 6306,
      "▁학년": 6307,
      "▁높여": 6308,
      "▁외출": 6309,
      "▁커넥터": 6310,
      "▁평온": 6311,
      "▁평평": 6312,
      "▁활력": 6313,
      "▁월급": 6314,
      "▁월세": 6315,
      "▁효능": 6316,
      "▁효소": 6317,
      "▁회의실": 6318,
      "▁던데요": 6319,
      "▁체온": 6320,
      "▁체제": 6321,
      "▁사이드": 6322,
      "▁침착": 6323,
      "▁견본": 6324,
      "▁부드러워": 6325,
      "▁토크": 6326,
      "▁농구": 6327,
      "▁둘레": 6328,
      "▁1500": 6329,
      "▁CD": 6330,
      "▁엔터": 6331,
      "▁들어갑니다": 6332,
      "▁순환": 6333,
      "▁자신감": 6334,
      "▁백화점": 6335,
      "▁승리": 6336,
      "▁소매상": 6337,
      "▁빌려": 6338,
      "▁법원": 6339,
      "▁풍경": 6340,
      "▁꼭대기": 6341,
      "▁착오": 6342,
      "▁외국어": 6343,
      "▁탈착": 6344,
      "▁범용": 6345,
      "▁슬프": 6346,
      "▁떨어졌": 6347,
      "▁떨어질": 6348,
      "▁져야": 6349,
      "▁알아차": 6350,
      "▁라이너": 6351,
      "▁망원": 6352,
      "▁민트": 6353,
      "▁IP": 6354,
      "▁철강": 6355,
      "▁극장": 6356,
      "▁이걸로": 6357,
      "▁웨딩": 6358,
      "▁폭발": 6359,
      "▁달라집니다": 6360,
      "▁프라이드": 6361,
      "▁프라이팬": 6362,
      "▁직장인": 6363,
      "▁곤충": 6364,
      "▁챙겼": 6365,
      "▁폐기": 6366,
      "▁스쿠터": 6367,
      "▁끼쳐": 6368,
      "▁과학자": 6369,
      "▁엔지니어링": 6370,
      "▁입찰가": 6371,
      "▁브로우": 6372,
      "▁스프링": 6373,
      "▁블루베리": 6374,
      "▁냉동고": 6375,
      "▁휠체어": 6376,
      "▁가르치": 6377,
      "▁선보이": 6378,
      "▁2022": 6379,
      "▁중심부": 6380,
      "▁플래너": 6381,
      "▁리모컨": 6382,
      "▁올라가": 6383,
      "▁꾸준": 6384,
      "▁밸런스": 6385,
      "▁스케치": 6386,
      "▁정해진": 6387,
      "▁연회장": 6388,
      "▁똑같이": 6389,
      "▁주최자": 6390,
      "▁철저히": 6391,
      "▁GPU": 6392,
      "▁삽입": 6393,
      "▁슬라이드": 6394,
      "▁묶음": 6395,
      "▁현미경": 6396,
      "▁반가워요": 6397,
      "▁푹신": 6398,
      "▁까다롭": 6399,
      "▁접착제": 6400,
      "▁페이스트리": 6401,
      "▁갤러리": 6402,
      "▁텍스트": 6403,
      "▁12345678": 6404,
      "▁퓨저": 6405,
      "▁위원회": 6406,
      "▁명세서": 6407,
      "▁비스킷": 6408,
      "▁살아남": 6409,
      "▁마스카라": 6410,
      "▁베이커리": 6411,
      "▁일렉트릭": 6412,
      "▁간절히": 6413,
      "▁가져다주": 6414,
      "▁CPU": 6415,
      "▁Compan": 6416,
      "▁캠퍼스": 6417,
      "▁홀리데이": 6418,
      "▁끔찍": 6419,
      "▁냅킨": 6420,
      "▁생분해성": 6421,
      "▁Company": 6422,
      "90": 6423,
      "PF": 6424,
      "me": 6425,
      "od": 6426,
      "op": 6427,
      "▁e": 6428,
      "▁둡": 6429,
      "▁렴": 6430,
      "▁룩": 6431,
      "▁족": 6432,
      "▁펴": 6433,
      "▁획": 6434,
      "▁랜드": 6435,
      "▁릅니다": 6436,
      "▁섀도": 6437,
      "놀로지": 6438,
      "니메": 6439,
      "니엄": 6440,
      "다발": 6441,
      "동품": 6442,
      "라노": 6443,
      "라도": 6444,
      "랑이": 6445,
      "러스트": 6446,
      "레소": 6447,
      "루텐": 6448,
      "리티": 6449,
      "물쇠": 6450,
      "바닥": 6451,
      "선스": 6452,
      "세대": 6453,
      "속기": 6454,
      "솔린": 6455,
      "숭아": 6456,
      "스러운": 6457,
      "식간": 6458,
      "아버지": 6459,
      "올리": 6460,
      "와이": 6461,
      "워서": 6462,
      "은품": 6463,
      "음파": 6464,
      "작용": 6465,
      "질랜드": 6466,
      "쳐서": 6467,
      "커니즘": 6468,
      "타입": 6469,
      "테나": 6470,
      "티미터": 6471,
      "틸렌": 6472,
      "파일": 6473,
      "학생": 6474,
      "학자": 6475,
      "회전": 6476,
      "▁이력": 6477,
      "▁이모": 6478,
      "▁이봐": 6479,
      "▁이크": 6480,
      "▁에스프": 6481,
      "▁하와이": 6482,
      "▁습관": 6483,
      "▁가려": 6484,
      "▁가솔린": 6485,
      "▁의식": 6486,
      "▁고생": 6487,
      "▁고수": 6488,
      "▁수만": 6489,
      "▁수지": 6490,
      "▁수직": 6491,
      "▁수평": 6492,
      "▁한약": 6493,
      "▁한동안": 6494,
      "▁해제": 6495,
      "▁주가": 6496,
      "▁주사": 6497,
      "▁주전자": 6498,
      "▁주사기": 6499,
      "▁지진": 6500,
      "▁사냥": 6501,
      "▁사물": 6502,
      "▁사유": 6503,
      "▁사태": 6504,
      "▁사은품": 6505,
      "▁시킨": 6506,
      "▁아동": 6507,
      "▁아치": 6508,
      "▁입자": 6509,
      "▁도우": 6510,
      "▁다목": 6511,
      "▁다중": 6512,
      "▁할부": 6513,
      "▁할아버지": 6514,
      "▁보급": 6515,
      "▁보류": 6516,
      "▁세사": 6517,
      "▁세심": 6518,
      "▁세포": 6519,
      "▁대륙": 6520,
      "▁대역": 6521,
      "▁대요": 6522,
      "▁로마": 6523,
      "▁로써": 6524,
      "▁로우": 6525,
      "▁나눌": 6526,
      "▁나니다": 6527,
      "▁전압": 6528,
      "▁거로": 6529,
      "▁모래": 6530,
      "▁드러": 6531,
      "▁드시": 6532,
      "▁드세요": 6533,
      "▁드레싱": 6534,
      "▁여겨": 6535,
      "▁알렸": 6536,
      "▁적힌": 6537,
      "▁일관": 6538,
      "▁일리": 6539,
      "▁일지": 6540,
      "▁예매": 6541,
      "▁예치": 6542,
      "▁안테나": 6543,
      "▁소송": 6544,
      "▁소시지": 6545,
      "▁와플": 6546,
      "▁당뇨": 6547,
      "▁감기": 6548,
      "▁감수": 6549,
      "▁자물쇠": 6550,
      "▁오지": 6551,
      "▁오피스": 6552,
      "▁부상": 6553,
      "▁부패": 6554,
      "▁부릅니다": 6555,
      "▁부티크": 6556,
      "▁부작용": 6557,
      "▁스러워": 6558,
      "▁바래": 6559,
      "▁바구니": 6560,
      "▁귀여": 6561,
      "▁귀걸이": 6562,
      "▁26": 6563,
      "▁27": 6564,
      "▁요법": 6565,
      "▁구급": 6566,
      "▁내기": 6567,
      "▁내심": 6568,
      "▁마셨": 6569,
      "▁마칠": 6570,
      "▁마크": 6571,
      "▁개업": 6572,
      "▁개척": 6573,
      "▁생리": 6574,
      "▁필기": 6575,
      "▁서식": 6576,
      "▁유분": 6577,
      "▁유산": 6578,
      "▁유한": 6579,
      "▁유전자": 6580,
      "▁공동": 6581,
      "▁공사": 6582,
      "▁매각": 6583,
      "▁신지": 6584,
      "▁연필": 6585,
      "▁배려": 6586,
      "▁배추": 6587,
      "▁방치": 6588,
      "▁상장": 6589,
      "▁실현": 6590,
      "▁음영": 6591,
      "▁음질": 6592,
      "▁주문도": 6593,
      "▁주문서": 6594,
      "▁무겁": 6595,
      "▁무늬": 6596,
      "▁동할": 6597,
      "▁선구": 6598,
      "▁선별": 6599,
      "▁선정": 6600,
      "▁선풍기": 6601,
      "▁조화": 6602,
      "▁조미료": 6603,
      "▁야드": 6604,
      "▁경량": 6605,
      "▁경이": 6606,
      "▁달력": 6607,
      "▁포지": 6608,
      "▁포토": 6609,
      "▁원화": 6610,
      "▁시간대": 6611,
      "▁미소": 6612,
      "▁새틴": 6613,
      "▁새해": 6614,
      "▁파마": 6615,
      "▁용의": 6616,
      "▁잘라": 6617,
      "▁음식물": 6618,
      "▁음식점": 6619,
      "▁통계": 6620,
      "▁통관": 6621,
      "▁는지요": 6622,
      "▁화산": 6623,
      "▁화소": 6624,
      "▁발급": 6625,
      "▁발목": 6626,
      "▁따른": 6627,
      "▁따를": 6628,
      "▁따릅니다": 6629,
      "▁걸음": 6630,
      "▁걸릴까요": 6631,
      "▁어떤지": 6632,
      "▁차세대": 6633,
      "▁집안": 6634,
      "▁현황": 6635,
      "▁배송지": 6636,
      "▁단다": 6637,
      "▁너겟": 6638,
      "▁가격대": 6639,
      "▁종의": 6640,
      "▁손바닥": 6641,
      "▁아니야": 6642,
      "▁새로워": 6643,
      "▁불어": 6644,
      "▁약혼": 6645,
      "▁크라": 6646,
      "▁따라오": 6647,
      "▁항구": 6648,
      "▁반환": 6649,
      "▁프로파일": 6650,
      "▁목욕": 6651,
      "▁플로": 6652,
      "▁메커니즘": 6653,
      "▁명단": 6654,
      "▁명성": 6655,
      "▁초음파": 6656,
      "▁친척": 6657,
      "▁환상": 6658,
      "▁환율": 6659,
      "▁환하": 6660,
      "▁출입": 6661,
      "▁1080": 6662,
      "▁교정": 6663,
      "▁버너": 6664,
      "▁버렸": 6665,
      "▁버클": 6666,
      "▁버틸": 6667,
      "▁충실": 6668,
      "▁금이": 6669,
      "▁열기": 6670,
      "▁열매": 6671,
      "▁산소": 6672,
      "▁니스": 6673,
      "▁코딩": 6674,
      "▁변신": 6675,
      "▁팀장": 6676,
      "▁제조업": 6677,
      "▁올랐": 6678,
      "▁올게요": 6679,
      "▁청년": 6680,
      "▁청바지": 6681,
      "▁청정기": 6682,
      "▁커플": 6683,
      "▁트래": 6684,
      "▁양초": 6685,
      "▁채굴": 6686,
      "▁갈비": 6687,
      "▁갈아": 6688,
      "▁갈게요": 6689,
      "▁거래소": 6690,
      "▁즐겼": 6691,
      "▁임시": 6692,
      "▁임원": 6693,
      "▁취해야": 6694,
      "▁향료": 6695,
      "▁잠옷": 6696,
      "▁빠져": 6697,
      "▁빠지": 6698,
      "▁빠진": 6699,
      "▁체증": 6700,
      "▁보호막": 6701,
      "▁광물": 6702,
      "▁광채": 6703,
      "▁누릴": 6704,
      "▁박사": 6705,
      "▁베라": 6706,
      "▁돌보": 6707,
      "▁느라": 6708,
      "▁느려": 6709,
      "▁느니다": 6710,
      "▁증폭": 6711,
      "▁토큰": 6712,
      "▁토스터": 6713,
      "▁700": 6714,
      "▁논문": 6715,
      "▁논쟁": 6716,
      "▁복사": 6717,
      "▁복장": 6718,
      "▁복사기": 6719,
      "▁복숭아": 6720,
      "▁지원서": 6721,
      "▁애호가": 6722,
      "▁애니메": 6723,
      "▁잡히": 6724,
      "▁글루텐": 6725,
      "▁팔찌": 6726,
      "▁CA": 6727,
      "▁권해": 6728,
      "▁내용물": 6729,
      "▁숙제": 6730,
      "▁테이크": 6731,
      "▁러닝": 6732,
      "▁멋있": 6733,
      "▁순식간": 6734,
      "▁900": 6735,
      "▁백만": 6736,
      "▁백미": 6737,
      "▁밀폐": 6738,
      "▁빌렸": 6739,
      "▁법무": 6740,
      "▁팬케이크": 6741,
      "▁풍성": 6742,
      "▁흥정": 6743,
      "▁착색": 6744,
      "▁선호도": 6745,
      "▁염료": 6746,
      "▁염소": 6747,
      "▁음악가": 6748,
      "▁음악회": 6749,
      "▁악화": 6750,
      "▁발전기": 6751,
      "▁골동품": 6752,
      "▁으실까": 6753,
      "▁놀라워": 6754,
      "▁꽃다발": 6755,
      "▁구독료": 6756,
      "▁핸드백": 6757,
      "▁떠났": 6758,
      "▁영양사": 6759,
      "▁알아볼": 6760,
      "▁급하": 6761,
      "▁겨우": 6762,
      "▁라이선스": 6763,
      "▁뉴질랜드": 6764,
      "▁베이비": 6765,
      "▁아닌가요": 6766,
      "▁스키장": 6767,
      "▁바이오": 6768,
      "▁능숙": 6769,
      "▁분석가": 6770,
      "▁퍼스트": 6771,
      "▁팝콘": 6772,
      "▁기념일": 6773,
      "▁북미": 6774,
      "▁튀긴": 6775,
      "▁물어봐": 6776,
      "플레이션": 6777,
      "▁지나치": 6778,
      "▁세척기": 6779,
      "▁옥상": 6780,
      "▁스크랩": 6781,
      "▁믹스": 6782,
      "▁곡선": 6783,
      "▁덮여": 6784,
      "▁셰어": 6785,
      "▁셰이크": 6786,
      "▁싸우": 6787,
      "▁픽셀": 6788,
      "▁홀더": 6789,
      "▁입장권": 6790,
      "▁격리": 6791,
      "▁격주": 6792,
      "▁기차역": 6793,
      "▁나타냅니다": 6794,
      "▁머그잔": 6795,
      "▁핫라인": 6796,
      "▁오랜만": 6797,
      "▁트리트": 6798,
      "▁폴리에스테르": 6799,
      "▁끊임": 6800,
      "▁혈액": 6801,
      "▁즐거움": 6802,
      "▁즐거웠": 6803,
      "▁체인점": 6804,
      "▁골프공": 6805,
      "▁가슴살": 6806,
      "▁기내식": 6807,
      "▁스페인어": 6808,
      "▁수백만": 6809,
      "▁프리랜": 6810,
      "▁소화기": 6811,
      "▁성형기": 6812,
      "▁워크숍": 6813,
      "▁프로토콜": 6814,
      "▁프로토타입": 6815,
      "▁멤버십": 6816,
      "▁어딘지": 6817,
      "▁사라지": 6818,
      "▁테크놀로지": 6819,
      "▁날카로운": 6820,
      "▁칸막이": 6821,
      "▁꼼꼼히": 6822,
      "▁스타일리시": 6823,
      "▁세정제": 6824,
      "▁받침대": 6825,
      "▁재봉틀": 6826,
      "▁부드러움": 6827,
      "▁엽서": 6828,
      "▁쾌적": 6829,
      "▁가용성": 6830,
      "▁유람선": 6831,
      "▁재판매": 6832,
      "▁리소스": 6833,
      "▁오토바이": 6834,
      "▁둡니다": 6835,
      "▁섀도우": 6836,
      "▁에스프레소": 6837,
      "▁애니메이션": 6838,
      "LR": 6839,
      "at": 6840,
      "ces": 6841,
      "ol": 6842,
      "re": 6843,
      "▁f": 6844,
      "▁i": 6845,
      "▁괴": 6846,
      "▁넥": 6847,
      "▁둥": 6848,
      "▁럭": 6849,
      "▁몬": 6850,
      "▁밍": 6851,
      "▁벼": 6852,
      "▁숭": 6853,
      "▁즈": 6854,
      "▁츠": 6855,
      "▁랍니다": 6856,
      "가스": 6857,
      "금치": 6858,
      "기기": 6859,
      "꺼풀": 6860,
      "나리오": 6861,
      "니커": 6862,
      "다른": 6863,
      "다보": 6864,
      "덕션": 6865,
      "도저": 6866,
      "로세": 6867,
      "로스": 6868,
      "로자": 6869,
      "로잡": 6870,
      "르크": 6871,
      "립니까": 6872,
      "메인": 6873,
      "무늬": 6874,
      "미니엄": 6875,
      "민트": 6876,
      "박수": 6877,
      "버터": 6878,
      "베이": 6879,
      "벤더": 6880,
      "부제": 6881,
      "분간": 6882,
      "사항": 6883,
      "소싱": 6884,
      "숙이": 6885,
      "순물": 6886,
      "스키": 6887,
      "시보드": 6888,
      "십니다": 6889,
      "안경": 6890,
      "오스": 6891,
      "워드": 6892,
      "으로": 6893,
      "재료": 6894,
      "전지": 6895,
      "져야": 6896,
      "질러": 6897,
      "충전": 6898,
      "치즈": 6899,
      "콜리": 6900,
      "쿠스틱": 6901,
      "크로": 6902,
      "클링": 6903,
      "타이": 6904,
      "타지": 6905,
      "탄올": 6906,
      "택트": 6907,
      "터카": 6908,
      "트라": 6909,
      "트밀": 6910,
      "티슈": 6911,
      "패드": 6912,
      "포니아": 6913,
      "프리카": 6914,
      "해서": 6915,
      "혜자": 6916,
      "히려": 6917,
      "▁이끌": 6918,
      "▁이드": 6919,
      "▁이슈": 6920,
      "▁이터": 6921,
      "▁는군요": 6922,
      "▁에탄올": 6923,
      "▁하늘": 6924,
      "▁하신": 6925,
      "▁가운": 6926,
      "▁어필": 6927,
      "▁어쿠스틱": 6928,
      "▁의지": 6929,
      "▁제자리": 6930,
      "▁고른": 6931,
      "▁고유": 6932,
      "▁고프": 6933,
      "▁수련": 6934,
      "▁수에": 6935,
      "▁수혜자": 6936,
      "▁그치": 6937,
      "▁합격": 6938,
      "▁합금": 6939,
      "▁한두": 6940,
      "▁해본": 6941,
      "▁해소": 6942,
      "▁해양": 6943,
      "▁해충": 6944,
      "▁주주": 6945,
      "▁주파": 6946,
      "▁주십시오": 6947,
      "▁저지": 6948,
      "▁저하": 6949,
      "▁기도": 6950,
      "▁기둥": 6951,
      "▁기미": 6952,
      "▁기쁜": 6953,
      "▁기침": 6954,
      "▁기하": 6955,
      "▁기후": 6956,
      "▁지냈": 6957,
      "▁지분": 6958,
      "▁지적": 6959,
      "▁사려": 6960,
      "▁사치": 6961,
      "▁사로잡": 6962,
      "▁시골": 6963,
      "▁시선": 6964,
      "▁시연": 6965,
      "▁시멘트": 6966,
      "▁시금치": 6967,
      "▁시나리오": 6968,
      "▁아냐": 6969,
      "▁아예": 6970,
      "▁아픈": 6971,
      "▁입원": 6972,
      "▁도중": 6973,
      "▁도메인": 6974,
      "▁다치": 6975,
      "▁보건": 6976,
      "▁제품군": 6977,
      "▁세우": 6978,
      "▁세웠": 6979,
      "▁세차": 6980,
      "▁세팅": 6981,
      "▁대금": 6982,
      "▁대당": 6983,
      "▁대처": 6984,
      "▁대시보드": 6985,
      "▁로스": 6986,
      "▁로즈": 6987,
      "▁나기": 6988,
      "▁게이지": 6989,
      "▁인당": 6990,
      "▁인플레이션": 6991,
      "▁과목": 6992,
      "▁전날": 6993,
      "▁전도": 6994,
      "▁전역": 6995,
      "▁전지": 6996,
      "▁모을": 6997,
      "▁모집": 6998,
      "▁여과": 6999,
      "▁여섯": 7000,
      "▁적기": 7001,
      "▁적외선": 7002,
      "▁네이": 7003,
      "▁우울": 7004,
      "▁일행": 7005,
      "▁했으니": 7006,
      "▁만남": 7007,
      "▁만질": 7008,
      "▁만찬": 7009,
      "▁예열": 7010,
      "▁안건": 7011,
      "▁안색": 7012,
      "▁와요": 7013,
      "▁당할": 7014,
      "▁당분간": 7015,
      "▁감량": 7016,
      "▁감상": 7017,
      "▁감염": 7018,
      "▁자가": 7019,
      "▁자선": 7020,
      "▁위기": 7021,
      "▁위성": 7022,
      "▁정렬": 7023,
      "▁정전": 7024,
      "▁정제": 7025,
      "▁정할": 7026,
      "▁문장": 7027,
      "▁오트밀": 7028,
      "▁오히려": 7029,
      "▁부디": 7030,
      "▁부팅": 7031,
      "▁스몰": 7032,
      "▁스팀": 7033,
      "▁스니커": 7034,
      "▁바랐": 7035,
      "▁바른": 7036,
      "▁바빠": 7037,
      "▁귀엽": 7038,
      "▁귀중": 7039,
      "▁귀찮": 7040,
      "▁회로": 7041,
      "▁회장": 7042,
      "▁요가": 7043,
      "▁요원": 7044,
      "▁구두": 7045,
      "▁구요": 7046,
      "▁구이": 7047,
      "▁내면": 7048,
      "▁마그": 7049,
      "▁마더": 7050,
      "▁마력": 7051,
      "▁마닐라": 7052,
      "▁생길": 7053,
      "▁필레": 7054,
      "▁필링": 7055,
      "▁서기": 7056,
      "▁유니": 7057,
      "▁유료": 7058,
      "▁공주": 7059,
      "▁공짜": 7060,
      "▁공통": 7061,
      "▁라켓": 7062,
      "▁라벤더": 7063,
      "▁매크로": 7064,
      "▁중공": 7065,
      "▁중형": 7066,
      "▁신문": 7067,
      "▁연속": 7068,
      "▁방의": 7069,
      "▁방탄": 7070,
      "▁방부제": 7071,
      "▁관행": 7072,
      "▁상영": 7073,
      "▁상처": 7074,
      "▁상표": 7075,
      "▁실러": 7076,
      "▁실적": 7077,
      "▁최악": 7078,
      "▁무궁": 7079,
      "▁무리": 7080,
      "▁계셨": 7081,
      "▁계실": 7082,
      "▁동반": 7083,
      "▁장려": 7084,
      "▁장면": 7085,
      "▁장의": 7086,
      "▁건전지": 7087,
      "▁조율": 7088,
      "▁조카": 7089,
      "▁조회": 7090,
      "▁물량": 7091,
      "▁물티슈": 7092,
      "▁포착": 7093,
      "▁셔틀": 7094,
      "▁성급": 7095,
      "▁그리스": 7096,
      "▁추측": 7097,
      "▁생각나": 7098,
      "▁재능": 7099,
      "▁재해": 7100,
      "▁재충전": 7101,
      "▁분배": 7102,
      "▁분할": 7103,
      "▁미묘": 7104,
      "▁프레스": 7105,
      "▁확인서": 7106,
      "▁파인": 7107,
      "▁용접": 7108,
      "▁피시": 7109,
      "▁피치": 7110,
      "▁설비": 7111,
      "▁데이트": 7112,
      "▁통째": 7113,
      "▁발리": 7114,
      "▁걸려": 7115,
      "▁걸립니까": 7116,
      "▁디스크": 7117,
      "▁차리": 7118,
      "▁집세": 7119,
      "▁맞이": 7120,
      "▁직선": 7121,
      "▁진단": 7122,
      "▁진료": 7123,
      "▁카라": 7124,
      "▁판타지": 7125,
      "▁단편": 7126,
      "▁다고요": 7127,
      "▁종자": 7128,
      "▁온실": 7129,
      "▁아니오": 7130,
      "▁예약금": 7131,
      "▁줄까": 7132,
      "▁줄래": 7133,
      "▁불도저": 7134,
      "▁불순물": 7135,
      "▁후보": 7136,
      "▁약초": 7137,
      "▁약품": 7138,
      "▁셨으니": 7139,
      "▁크리": 7140,
      "▁크레인": 7141,
      "▁반바지": 7142,
      "▁언덕": 7143,
      "▁참깨": 7144,
      "▁메스": 7145,
      "▁사업자": 7146,
      "▁명상": 7147,
      "▁명심": 7148,
      "▁초록": 7149,
      "▁초월": 7150,
      "▁출간": 7151,
      "▁출구": 7152,
      "▁살충제": 7153,
      "▁맛볼": 7154,
      "▁맛집": 7155,
      "▁레이스": 7156,
      "▁볼게": 7157,
      "▁교차": 7158,
      "▁타사": 7159,
      "▁치명": 7160,
      "▁날아": 7161,
      "▁버그": 7162,
      "▁리션": 7163,
      "▁아이섀도": 7164,
      "▁등장": 7165,
      "▁점원": 7166,
      "▁점차": 7167,
      "▁질소": 7168,
      "▁응해": 7169,
      "▁코로": 7170,
      "▁절인": 7171,
      "▁올렸": 7172,
      "▁올릴": 7173,
      "▁올지": 7174,
      "▁책정": 7175,
      "레이터": 7176,
      "스트라": 7177,
      "▁양치": 7178,
      "▁양호": 7179,
      "▁갈게": 7180,
      "▁갈라": 7181,
      "▁갈래": 7182,
      "▁곳도": 7183,
      "▁임신": 7184,
      "▁클램프": 7185,
      "▁사무소": 7186,
      "▁잠들": 7187,
      "▁빠졌": 7188,
      "▁근로자": 7189,
      "▁누출": 7190,
      "▁담겨": 7191,
      "▁페스": 7192,
      "▁협회": 7193,
      "▁구성원": 7194,
      "▁돌리": 7195,
      "▁돌볼": 7196,
      "▁견학": 7197,
      "▁느리": 7198,
      "▁프로젝터": 7199,
      "▁복원": 7200,
      "▁애견": 7201,
      "▁컨베이": 7202,
      "▁스타터": 7203,
      "▁심박수": 7204,
      "▁창가": 7205,
      "▁창립": 7206,
      "▁콘크리": 7207,
      "▁콘택트": 7208,
      "▁독감": 7209,
      "▁독립": 7210,
      "▁요구사항": 7211,
      "▁키울": 7212,
      "▁매장이": 7213,
      "▁궁극": 7214,
      "▁액자": 7215,
      "▁멋질": 7216,
      "▁순수": 7217,
      "▁혼방": 7218,
      "▁스트레": 7219,
      "▁스트링": 7220,
      "▁놓쳤": 7221,
      "▁만드세요": 7222,
      "▁화장지": 7223,
      "▁뛰어들": 7224,
      "▁캐빈": 7225,
      "▁캐슈": 7226,
      "▁잔과": 7227,
      "▁센티미터": 7228,
      "▁렌터카": 7229,
      "▁기억나": 7230,
      "▁연구소": 7231,
      "▁수출입": 7232,
      "▁압박": 7233,
      "▁이동하": 7234,
      "▁홍콩": 7235,
      "▁범주": 7236,
      "▁ml": 7237,
      "▁벌어": 7238,
      "▁슬립": 7239,
      "▁슬링": 7240,
      "▁골랐": 7241,
      "▁암벽": 7242,
      "▁교육용": 7243,
      "▁com": 7244,
      "▁져서": 7245,
      "▁우선시": 7246,
      "▁흡입": 7247,
      "▁소유주": 7248,
      "▁알아주": 7249,
      "▁SPF": 7250,
      "▁깊숙이": 7251,
      "▁망가": 7252,
      "▁망치": 7253,
      "▁민간": 7254,
      "▁갑작": 7255,
      "▁섭씨": 7256,
      "▁샴페인": 7257,
      "▁베이글": 7258,
      "▁In": 7259,
      "▁타이틀": 7260,
      "▁PO": 7261,
      "▁탁상": 7262,
      "▁파스텔": 7263,
      "▁경쟁자": 7264,
      "▁DS": 7265,
      "▁바이올": 7266,
      "▁극성": 7267,
      "▁탐구": 7268,
      "▁퍼즐": 7269,
      "▁촉감": 7270,
      "▁훈제": 7271,
      "▁달라질": 7272,
      "▁봐야겠": 7273,
      "▁셀룰": 7274,
      "▁셀프": 7275,
      "▁회전식": 7276,
      "▁체크아웃": 7277,
      "▁상상력": 7278,
      "▁캠핑카": 7279,
      "▁벨벳": 7280,
      "▁믹서": 7281,
      "▁180": 7282,
      "▁칠리": 7283,
      "▁폐수": 7284,
      "▁나이프": 7285,
      "▁매운맛": 7286,
      "▁맡겨": 7287,
      "▁기름진": 7288,
      "▁MR": 7289,
      "▁콜로세": 7290,
      "▁브로콜리": 7291,
      "▁슈트": 7292,
      "▁시리얼": 7293,
      "▁상담원": 7294,
      "▁루프": 7295,
      "▁번역가": 7296,
      "▁틀렸": 7297,
      "▁흔적": 7298,
      "▁격려": 7299,
      "▁뜨개": 7300,
      "▁그만큼": 7301,
      "▁캔디": 7302,
      "▁하드웨어": 7303,
      "▁쌍안경": 7304,
      "▁흐르": 7305,
      "▁거주자": 7306,
      "▁와이파이": 7307,
      "▁성인용": 7308,
      "▁아이스티": 7309,
      "▁허가증": 7310,
      "▁벗어나": 7311,
      "▁크리스탈": 7312,
      "▁TB": 7313,
      "▁정해져": 7314,
      "▁경찰서": 7315,
      "▁옮겨": 7316,
      "▁퇴근": 7317,
      "▁출판사": 7318,
      "▁아웃소싱": 7319,
      "▁우편물": 7320,
      "▁돌려받": 7321,
      "▁잃어버렸": 7322,
      "▁잃어버린": 7323,
      "▁인정받": 7324,
      "▁브라운": 7325,
      "▁브라질": 7326,
      "▁열쇠고리": 7327,
      "▁스러웠": 7328,
      "▁호스텔": 7329,
      "▁밀크티": 7330,
      "▁pop": 7331,
      "▁붐비": 7332,
      "▁표지판": 7333,
      "▁콜라겐": 7334,
      "▁스위트룸": 7335,
      "▁랜딩": 7336,
      "▁스노우": 7337,
      "▁어딘가": 7338,
      "▁배고파": 7339,
      "▁후원자": 7340,
      "▁2019": 7341,
      "▁콘도미니엄": 7342,
      "▁렌트카": 7343,
      "▁넘어가": 7344,
      "▁듀얼": 7345,
      "▁거쳐야": 7346,
      "▁통역사": 7347,
      "▁크레용": 7348,
      "▁생겨서": 7349,
      "▁활기차": 7350,
      "▁뮤지컬": 7351,
      "▁캘리포니아": 7352,
      "▁방사선": 7353,
      "▁망원경": 7354,
      "▁꾸준히": 7355,
      "▁한약재": 7356,
      "▁CAD": 7357,
      "▁테이크아웃": 7358,
      "▁프리랜서": 7359,
      "▁스니커즈": 7360,
      "▁컨베이어": 7361,
      "▁콘크리트": 7362,
      "▁콜로세움": 7363,
      "DF": 7364,
      "GB": 7365,
      "UV": 7366,
      "ad": 7367,
      "am": 7368,
      "ech": 7369,
      "id": 7370,
      "il": 7371,
      "ies": 7372,
      "og": 7373,
      "st": 7374,
      "▁b": 7375,
      "▁d": 7376,
      "▁럽": 7377,
      "▁론": 7378,
      "▁롱": 7379,
      "▁릭": 7380,
      "▁릴": 7381,
      "▁릿": 7382,
      "▁붕": 7383,
      "▁융": 7384,
      "▁쟁": 7385,
      "▁춘": 7386,
      "▁칙": 7387,
      "▁틴": 7388,
      "▁펠": 7389,
      "▁힌": 7390,
      "▁00": 7391,
      "▁웨어": 7392,
      "▁래요": 7393,
      "거진": 7394,
      "겨지": 7395,
      "겹살": 7396,
      "기름": 7397,
      "기사": 7398,
      "김치": 7399,
      "날로그": 7400,
      "놀이": 7401,
      "다드": 7402,
      "다수": 7403,
      "대체": 7404,
      "두콩": 7405,
      "래커": 7406,
      "러야": 7407,
      "럭스": 7408,
      "렉터": 7409,
      "로니": 7410,
      "로울": 7411,
      "로워": 7412,
      "루트": 7413,
      "릴러": 7414,
      "마할": 7415,
      "머리": 7416,
      "면조": 7417,
      "무게": 7418,
      "무원": 7419,
      "미널": 7420,
      "바라기": 7421,
      "백제": 7422,
      "버스": 7423,
      "비아": 7424,
      "사용": 7425,
      "사히": 7426,
      "삭기": 7427,
      "생활": 7428,
      "서클": 7429,
      "셔리": 7430,
      "셰이크": 7431,
      "소통": 7432,
      "쇄기": 7433,
      "수건": 7434,
      "스처": 7435,
      "스펜": 7436,
      "스터리": 7437,
      "식성": 7438,
      "아이스": 7439,
      "알코올": 7440,
      "앤젤": 7441,
      "양식": 7442,
      "여물": 7443,
      "와트": 7444,
      "운지": 7445,
      "워질": 7446,
      "원히": 7447,
      "웨이": 7448,
      "으므로": 7449,
      "은이": 7450,
      "일랜드": 7451,
      "작위": 7452,
      "저분": 7453,
      "조끼": 7454,
      "지도": 7455,
      "진진": 7456,
      "치킨": 7457,
      "키니": 7458,
      "테롤": 7459,
      "텍스": 7460,
      "토리": 7461,
      "통제": 7462,
      "트륨": 7463,
      "티넘": 7464,
      "파리": 7465,
      "프터": 7466,
      "프팅": 7467,
      "하늘": 7468,
      "해져": 7469,
      "회사": 7470,
      "▁이겨": 7471,
      "▁이기": 7472,
      "▁이닝": 7473,
      "▁이륙": 7474,
      "▁이윤": 7475,
      "▁이주": 7476,
      "▁이체": 7477,
      "▁을래요": 7478,
      "▁하락": 7479,
      "▁하우": 7480,
      "▁가졌": 7481,
      "▁가짜": 7482,
      "▁가집니다": 7483,
      "▁가운데": 7484,
      "▁어둡": 7485,
      "▁어떡": 7486,
      "▁어묵": 7487,
      "▁어시": 7488,
      "▁의문": 7489,
      "▁의외": 7490,
      "▁제격": 7491,
      "▁제과": 7492,
      "▁제재": 7493,
      "▁제주": 7494,
      "▁고온": 7495,
      "▁고음": 7496,
      "▁고집": 7497,
      "▁고향": 7498,
      "▁수거": 7499,
      "▁수저": 7500,
      "▁수질": 7501,
      "▁그라인": 7502,
      "▁한대": 7503,
      "▁한잔": 7504,
      "▁해안": 7505,
      "▁해져요": 7506,
      "▁해바라기": 7507,
      "▁주력": 7508,
      "▁주시": 7509,
      "▁저온": 7510,
      "▁기쁠": 7511,
      "▁기자": 7512,
      "▁기프트": 7513,
      "▁지낼": 7514,
      "▁지배": 7515,
      "▁지우": 7516,
      "▁지킬": 7517,
      "▁지저분": 7518,
      "▁사요": 7519,
      "▁사워": 7520,
      "▁사자": 7521,
      "▁사정": 7522,
      "▁사우스": 7523,
      "▁시력": 7524,
      "▁시뮬": 7525,
      "▁시중": 7526,
      "▁아끼": 7527,
      "▁아스": 7528,
      "▁아실": 7529,
      "▁아트": 7530,
      "▁아셔야": 7531,
      "▁아날로그": 7532,
      "▁도면": 7533,
      "▁도포": 7534,
      "▁도한": 7535,
      "▁도대체": 7536,
      "▁다림": 7537,
      "▁할래": 7538,
      "▁보행": 7539,
      "▁세안": 7540,
      "▁대도": 7541,
      "▁대용": 7542,
      "▁대전": 7543,
      "▁나갔": 7544,
      "▁나이트": 7545,
      "▁면직": 7546,
      "▁인가": 7547,
      "▁인내": 7548,
      "▁인접": 7549,
      "▁인턴": 7550,
      "▁과소": 7551,
      "▁과열": 7552,
      "▁전념": 7553,
      "▁전선": 7554,
      "▁전제": 7555,
      "▁전처": 7556,
      "▁전한": 7557,
      "▁전형": 7558,
      "▁전후": 7559,
      "▁거울": 7560,
      "▁거칠": 7561,
      "▁거트": 7562,
      "▁거칩니다": 7563,
      "▁모근": 7564,
      "▁모색": 7565,
      "▁모았": 7566,
      "▁모이스": 7567,
      "▁알릴": 7568,
      "▁우주": 7569,
      "▁우레탄": 7570,
      "▁일몰": 7571,
      "▁일자리": 7572,
      "▁만난": 7573,
      "▁만회": 7574,
      "▁예배": 7575,
      "▁예시": 7576,
      "▁예의": 7577,
      "▁예절": 7578,
      "▁안락": 7579,
      "▁안티": 7580,
      "▁소녀": 7581,
      "▁소수": 7582,
      "▁당구": 7583,
      "▁당포": 7584,
      "▁자는": 7585,
      "▁자매": 7586,
      "▁자수": 7587,
      "▁정당": 7588,
      "▁정장": 7589,
      "▁정체": 7590,
      "▁정치": 7591,
      "▁문과": 7592,
      "▁부로": 7593,
      "▁부수": 7594,
      "▁부피": 7595,
      "▁스페": 7596,
      "▁스턴트": 7597,
      "▁스릴러": 7598,
      "▁바늘": 7599,
      "▁귀리": 7600,
      "▁비듬": 7601,
      "▁비축": 7602,
      "▁비키니": 7603,
      "▁구합니다": 7604,
      "▁구겨지": 7605,
      "▁내린": 7606,
      "▁내서": 7607,
      "▁내셔": 7608,
      "▁내지": 7609,
      "▁내식성": 7610,
      "▁마비": 7611,
      "▁마요": 7612,
      "▁마쳤": 7613,
      "▁개성": 7614,
      "▁더운": 7615,
      "▁생소": 7616,
      "▁생수": 7617,
      "▁필라": 7618,
      "▁서스펜": 7619,
      "▁유래": 7620,
      "▁라테": 7621,
      "▁라이터": 7622,
      "▁라텍스": 7623,
      "▁매거진": 7624,
      "▁중립": 7625,
      "▁중성": 7626,
      "▁신나": 7627,
      "▁연관": 7628,
      "▁연극": 7629,
      "▁연례": 7630,
      "▁연유": 7631,
      "▁연체": 7632,
      "▁배관": 7633,
      "▁배수": 7634,
      "▁방어": 7635,
      "▁상위": 7636,
      "▁상인": 7637,
      "▁상큼": 7638,
      "▁실까요": 7639,
      "▁음색": 7640,
      "▁음향": 7641,
      "▁무지": 7642,
      "▁무척": 7643,
      "▁무한": 7644,
      "▁무사히": 7645,
      "▁무작위": 7646,
      "▁동봉": 7647,
      "▁동상": 7648,
      "▁동행": 7649,
      "▁장만": 7650,
      "▁장사": 7651,
      "▁선배": 7652,
      "▁건의": 7653,
      "▁말리": 7654,
      "▁조상": 7655,
      "▁야영": 7656,
      "▁경관": 7657,
      "▁달랐": 7658,
      "▁물감": 7659,
      "▁물기": 7660,
      "▁포털": 7661,
      "▁원본": 7662,
      "▁원심": 7663,
      "▁원치": 7664,
      "▁원해": 7665,
      "▁식용": 7666,
      "▁추진": 7667,
      "▁재난": 7668,
      "▁재택": 7669,
      "▁재활": 7670,
      "▁재사용": 7671,
      "▁알려야": 7672,
      "▁작별": 7673,
      "▁분무": 7674,
      "▁분산": 7675,
      "▁미로": 7676,
      "▁미세": 7677,
      "▁미지": 7678,
      "▁미칠": 7679,
      "▁미스터리": 7680,
      "▁34": 7681,
      "▁37": 7682,
      "▁38": 7683,
      "▁파견": 7684,
      "▁파도": 7685,
      "▁피사": 7686,
      "▁통풍": 7687,
      "▁52": 7688,
      "▁56": 7689,
      "▁화석": 7690,
      "▁발가락": 7691,
      "▁걸려서": 7692,
      "▁까먹": 7693,
      "▁디럭스": 7694,
      "▁영원히": 7695,
      "▁차별": 7696,
      "▁차분": 7697,
      "▁차선": 7698,
      "▁차라리": 7699,
      "▁직경": 7700,
      "▁직진": 7701,
      "▁직사각": 7702,
      "▁진보": 7703,
      "▁진한": 7704,
      "▁진통제": 7705,
      "▁카페인": 7706,
      "▁편한": 7707,
      "▁편히": 7708,
      "▁줄어": 7709,
      "▁줄였": 7710,
      "▁줄게요": 7711,
      "▁줄래요": 7712,
      "▁불렀": 7713,
      "▁불쾌": 7714,
      "▁크리미": 7715,
      "▁크래커": 7716,
      "▁완충": 7717,
      "▁완두콩": 7718,
      "▁항균": 7719,
      "▁반찬": 7720,
      "▁는데도": 7721,
      "▁품안": 7722,
      "▁목과": 7723,
      "▁목소리": 7724,
      "▁플라이": 7725,
      "▁플리스": 7726,
      "▁플러스": 7727,
      "▁참기름": 7728,
      "▁노즐": 7729,
      "▁명령": 7730,
      "▁초래": 7731,
      "▁호랑이": 7732,
      "▁출근": 7733,
      "▁간접": 7734,
      "▁간다고": 7735,
      "▁살롱": 7736,
      "▁48": 7737,
      "▁450": 7738,
      "▁볼펜": 7739,
      "▁브래": 7740,
      "▁브루": 7741,
      "▁브리": 7742,
      "▁브이": 7743,
      "▁브레이": 7744,
      "▁브레인": 7745,
      "▁교류": 7746,
      "▁교재": 7747,
      "▁치실": 7748,
      "▁치유": 7749,
      "▁색의": 7750,
      "▁버드": 7751,
      "▁버킷": 7752,
      "▁리무": 7753,
      "▁리본": 7754,
      "▁리프팅": 7755,
      "▁표기": 7756,
      "▁표본": 7757,
      "▁표적": 7758,
      "▁표백제": 7759,
      "▁금색": 7760,
      "▁금전": 7761,
      "▁금형": 7762,
      "▁패티": 7763,
      "▁아이라이": 7764,
      "▁피부색": 7765,
      "▁질환": 7766,
      "▁지불금": 7767,
      "▁학위": 7768,
      "▁니즈": 7769,
      "▁니트": 7770,
      "▁코일": 7771,
      "▁코르크": 7772,
      "▁변속기": 7773,
      "▁각국": 7774,
      "▁외식": 7775,
      "▁본드": 7776,
      "▁청산": 7777,
      "레이션": 7778,
      "▁양도": 7779,
      "▁양질": 7780,
      "▁채택": 7781,
      "▁갈리": 7782,
      "▁갈증": 7783,
      "▁곳곳": 7784,
      "▁임무": 7785,
      "▁왔으니": 7786,
      "▁든다고": 7787,
      "▁취미": 7788,
      "▁향초": 7789,
      "▁향하": 7790,
      "▁향한": 7791,
      "▁관리도": 7792,
      "▁관리비": 7793,
      "▁이용한": 7794,
      "▁잠글": 7795,
      "▁던데": 7796,
      "▁건강식": 7797,
      "▁64": 7798,
      "▁광각": 7799,
      "▁누나": 7800,
      "▁페놀": 7801,
      "▁형광": 7802,
      "▁침구": 7803,
      "▁침투": 7804,
      "▁침해": 7805,
      "▁생산자": 7806,
      "▁총기": 7807,
      "▁증빙": 7808,
      "▁증상": 7809,
      "▁85": 7810,
      "▁750": 7811,
      "▁농도": 7812,
      "▁농사": 7813,
      "▁태도": 7814,
      "▁태풍": 7815,
      "▁애프터": 7816,
      "▁잡초": 7817,
      "▁잡힌": 7818,
      "▁글래": 7819,
      "▁놀랄": 7820,
      "▁심사": 7821,
      "▁심한": 7822,
      "▁창밖": 7823,
      "▁창업": 7824,
      "▁독성": 7825,
      "▁독제": 7826,
      "▁키워드": 7827,
      "▁팔릴": 7828,
      "▁몰드": 7829,
      "▁숙녀": 7830,
      "▁러플": 7831,
      "▁95": 7832,
      "▁백라이트": 7833,
      "▁밀도": 7834,
      "▁밀착": 7835,
      "▁밀라노": 7836,
      "▁승차": 7837,
      "▁놓친": 7838,
      "▁스테이트": 7839,
      "▁빌드": 7840,
      "▁다이버": 7841,
      "▁밤낮": 7842,
      "▁밤새": 7843,
      "▁눈물": 7844,
      "▁잔소리": 7845,
      "▁잔여물": 7846,
      "레스테롤": 7847,
      "▁운전기사": 7848,
      "▁전자책": 7849,
      "▁솔기": 7850,
      "▁솔리드": 7851,
      "▁청소년": 7852,
      "▁커피숍": 7853,
      "▁압수": 7854,
      "▁탄생": 7855,
      "▁아무튼": 7856,
      "▁몸무게": 7857,
      "▁터키": 7858,
      "▁터미널": 7859,
      "▁홍삼": 7860,
      "▁갔었": 7861,
      "▁mA": 7862,
      "▁mg": 7863,
      "▁칼날": 7864,
      "▁깨닫": 7865,
      "▁봉제": 7866,
      "▁대학생": 7867,
      "▁익히": 7868,
      "▁뒤쪽": 7869,
      "▁뒤꿈치": 7870,
      "▁의사소통": 7871,
      "▁밝혀": 7872,
      "▁매니큐어": 7873,
      "▁영양분": 7874,
      "▁드라이아이스": 7875,
      "▁흥미진진": 7876,
      "▁SUV": 7877,
      "▁지하실": 7878,
      "▁겨드": 7879,
      "▁늘릴": 7880,
      "▁라이저": 7881,
      "▁납품": 7882,
      "▁망설": 7883,
      "▁망칠": 7884,
      "▁기뻐할": 7885,
      "▁계신지": 7886,
      "▁갑피": 7887,
      "▁저장실": 7888,
      "▁스포츠카": 7889,
      "▁인증서": 7890,
      "▁희생": 7891,
      "▁다가가": 7892,
      "▁삼촌": 7893,
      "▁삼겹살": 7894,
      "▁탁자": 7895,
      "▁경쟁사": 7896,
      "▁현대식": 7897,
      "▁짐작": 7898,
      "▁조리대": 7899,
      "▁립니": 7900,
      "▁철학": 7901,
      "▁컵케이크": 7902,
      "▁극복": 7903,
      "▁혁명": 7904,
      "▁끌어들": 7905,
      "▁가정용품": 7906,
      "▁나와서": 7907,
      "▁레이아웃": 7908,
      "▁웨이": 7909,
      "▁칩과": 7910,
      "▁칩스": 7911,
      "▁북쪽": 7912,
      "▁북한": 7913,
      "▁고용주": 7914,
      "▁보드카": 7915,
      "▁유연제": 7916,
      "▁고르고": 7917,
      "▁고르기": 7918,
      "▁프라이머": 7919,
      "▁프라이빗": 7920,
      "▁프라이어": 7921,
      "▁데려오": 7922,
      "▁육체": 7923,
      "▁199": 7924,
      "▁샌들": 7925,
      "▁칠면조": 7926,
      "▁끼리": 7927,
      "▁히트": 7928,
      "▁젊은이": 7929,
      "▁콜드": 7930,
      "▁콜레스테롤": 7931,
      "▁선명도": 7932,
      "▁건축가": 7933,
      "▁건축물": 7934,
      "▁윤리": 7935,
      "▁윤활": 7936,
      "▁좌우": 7937,
      "▁교통편": 7938,
      "▁느껴요": 7939,
      "▁느껴졌": 7940,
      "▁신속히": 7941,
      "▁군인": 7942,
      "▁멈춰야": 7943,
      "▁틀림": 7944,
      "▁흔히": 7945,
      "▁입장료": 7946,
      "▁선보일": 7947,
      "▁똑똑": 7948,
      "▁불가피": 7949,
      "▁이어졌": 7950,
      "▁정밀도": 7951,
      "▁플래티넘": 7952,
      "▁으셔서": 7953,
      "▁적당량": 7954,
      "▁엄격히": 7955,
      "▁RGB": 7956,
      "▁기다릴게요": 7957,
      "▁깔창": 7958,
      "▁꾸며": 7959,
      "▁170": 7960,
      "▁초보자": 7961,
      "▁깜빡": 7962,
      "▁옮길": 7963,
      "▁회계사": 7964,
      "▁혈압": 7965,
      "▁파이프": 7966,
      "▁비상구": 7967,
      "▁절단기": 7968,
      "▁끓여": 7969,
      "▁지켜야": 7970,
      "▁다크서클": 7971,
      "▁마셔요": 7972,
      "▁원자재": 7973,
      "▁노동자": 7974,
      "▁롤러": 7975,
      "▁굴삭기": 7976,
      "▁윈도": 7977,
      "▁스러울": 7978,
      "▁프랑스어": 7979,
      "▁밀크셰이크": 7980,
      "▁씹는": 7981,
      "▁웰빙": 7982,
      "▁수의사": 7983,
      "▁오프라인": 7984,
      "▁스웨터": 7985,
      "▁조용히": 7986,
      "▁반대편": 7987,
      "▁트랙터": 7988,
      "▁콜라보": 7989,
      "▁겉창": 7990,
      "▁걸어가": 7991,
      "▁걸어서": 7992,
      "▁갤런": 7993,
      "▁상대방": 7994,
      "▁날카롭": 7995,
      "▁색소폰": 7996,
      "▁중고차": 7997,
      "▁계량기": 7998,
      "▁스테이플": 7999,
      "▁부속품": 8000,
      "▁서서히": 8001,
      "▁타지마할": 8002,
      "▁했잖아요": 8003,
      "▁바인더": 8004,
      "▁바인딩": 8005,
      "▁경보기": 8006,
      "▁브라우저": 8007,
      "▁보온성": 8008,
      "▁구부러": 8009,
      "▁내열성": 8010,
      "▁피크닉": 8011,
      "▁반짝이": 8012,
      "▁클로저": 8013,
      "▁페퍼민트": 8014,
      "▁볶음밥": 8015,
      "▁우연히": 8016,
      "▁산호초": 8017,
      "▁알아차렸": 8018,
      "▁IPO": 8019,
      "ment": 8020,
      "▁이력서": 8021,
      "▁다목적": 8022,
      "▁대역폭": 8023,
      "▁당뇨병": 8024,
      "▁개척자": 8025,
      "▁포지션": 8026,
      "▁새로워진": 8027,
      "▁둥근": 8028,
      "▁럭셔리": 8029,
      "▁주파수": 8030,
      "▁로스앤젤": 8031,
      "▁바빠서": 8032,
      "▁날아갈": 8033,
      "▁코로나": 8034,
      "▁스트레치": 8035,
      "▁갑작스러운": 8036,
      "▁DSLR": 8037,
      "▁바이올린": 8038,
      "▁춘권": 8039,
      "▁칙칙": 8040,
      "▁서스펜션": 8041,
      "▁아이라이너": 8042,
      "▁로스앤젤레스": 8043
    },
    "merges": [
      "▁ .",
      "▁. \n",
      "니 다",
      "▁ 이",
      "▁ 는",
      "▁ 에",
      "▁ 을",
      "▁ 하",
      "▁ 습",
      "▁습 니다",
      "▁ 있",
      "▁ 가",
      "▁ ,",
      "▁ 은",
      "▁ 를",
      "▁ 어",
      "▁ 의",
      "▁ 제",
      "▁ 고",
      "▁ 수",
      "▁ 그",
      "▁ 합",
      "▁합 니다",
      "▁ 한",
      "▁ 해",
      "▁ 주",
      "▁ 저",
      "▁ 기",
      "▁ 지",
      "▁ 사",
      "▁ 시",
      "▁ 아",
      "▁ 입",
      "▁ 도",
      "▁ 다",
      "▁ 할",
      "▁입 니다",
      "▁ 으",
      "▁ ?",
      "▁? \n",
      "▁ 보",
      "▁ 것",
      "▁어 요",
      "▁제 품",
      "▁ 세",
      "▁ 대",
      "▁ 로",
      "▁ 들",
      "▁에 서",
      "▁ 나",
      "▁ 겠",
      "▁ 게",
      "▁으 로",
      "▁ 되",
      "B B",
      "▁ 면",
      "▁저 희",
      "▁ 인",
      "▁ 과",
      "▁ 전",
      "▁ 거",
      "▁ 모",
      "▁ 드",
      "▁ 여",
      "▁ 알",
      "▁ 적",
      "▁세 요",
      "▁ 네",
      "▁ 좋",
      "▁ 우",
      "F F",
      "A A",
      "▁ 일",
      "▁ 했",
      "▁ 만",
      "▁ 예",
      "▁ 1",
      "▁ 안",
      "▁ 소",
      "▁ 와",
      "▁우 리",
      "▁ 었",
      "▁ 당",
      "▁ 감",
      "▁ 않",
      "▁ 자",
      "▁ 위",
      "▁ 정",
      "▁ 싶",
      "▁ 문",
      "▁ 오",
      "▁ 부",
      "▁감 사",
      "▁ 스",
      "▁ 바",
      "▁ 귀",
      "▁ 비",
      "▁ 2",
      "▁사 용",
      "▁ 회",
      "▁ 요",
      "▁ 구",
      "▁ 내",
      "▁ 마",
      "▁ 개",
      "▁ 없",
      "▁ 더",
      "▁ 같",
      "▁ 생",
      "▁ 필",
      "▁ 서",
      "▁에 게",
      "▁ 많",
      "▁ BB",
      "▁BB B",
      "▁ 유",
      "메 일",
      "▁제 공",
      "▁ 됩",
      "▁됩 니다",
      "▁ 공",
      "▁ 라",
      "▁ 려",
      "▁ 매",
      "▁나 요",
      "▁ 중",
      "▁ 또",
      "▁ 신",
      "▁ 때",
      "▁ 연",
      "▁ 배",
      "▁ 방",
      "▁ FF",
      "▁FF F",
      "▁이 메일",
      "▁필 요",
      "▁ AA",
      "▁ 관",
      "▁AA A",
      "▁ 상",
      "▁ 실",
      "▁모 든",
      "▁ 음",
      "▁ 최",
      "▁ 확",
      "▁대 해",
      "▁주 문",
      "▁ 무",
      "▁ 계",
      "▁ 동",
      "▁안 녕",
      "▁ 받",
      "▁ 장",
      "▁해 요",
      "▁ 선",
      "▁ 건",
      "니 까",
      "▁당 신",
      "▁회 사",
      "▁ 말",
      "▁ 조",
      "▁아 요",
      "▁위 해",
      "▁ 죠",
      "▁한 국",
      "▁귀 하",
      "▁ 된",
      "▁려 고",
      "▁ 야",
      "▁대 한",
      "▁해 야",
      "▁고 객",
      "▁드 리",
      "0 0",
      "▁ 경",
      "▁ 달",
      "▁다 른",
      "▁소 개",
      "▁ 물",
      "▁문 의",
      "▁ 았",
      "▁ 포",
      "▁ 셔",
      "▁가 능",
      "▁ 원",
      "▁또 한",
      "▁ 성",
      "▁그 리",
      "▁가 지",
      "▁ 먹",
      "▁ 식",
      "▁예 요",
      "▁그리 고",
      "▁ 추",
      "▁ 함",
      "▁생 각",
      "▁ 될",
      "▁사 람",
      "▁시 간",
      "▁ !",
      "▁! \n",
      "▁ 재",
      "▁알 려",
      "▁ 작",
      "▁보 내",
      "▁ 분",
      "▁ 미",
      "▁ 3",
      "▁ 번",
      "▁ 프",
      "▁ 결",
      "▁여 기",
      "▁확 인",
      "▁당 사",
      "▁네 요",
      "▁ 새",
      "▁ 님",
      "▁ 파",
      "▁ 용",
      "▁ 잘",
      "립 니다",
      "랍 니다",
      "▁ 찾",
      "▁바 랍니다",
      "▁그 래",
      "▁ 피",
      "▁ 설",
      "▁음 식",
      "▁ 데",
      "▁ 업",
      "▁ 통",
      "▁는 지",
      "▁ 5",
      "▁ 두",
      "▁ 화",
      "▁ 발",
      "▁ 따",
      "▁ 십",
      "지 만",
      "까 요",
      "▁그 러",
      "▁ 걸",
      "비 스",
      "▁ 몇",
      "▁ 및",
      "▁어 떤",
      "▁셔 서",
      "▁ 특",
      "▁ 까",
      "▁ 처",
      "▁그 것",
      "▁서 비스",
      "▁문 제",
      "▁만 들",
      "▁정 말",
      "▁그 렇",
      "시 오",
      "▁하 지만",
      "▁가 장",
      "▁ 디",
      "▁지 만",
      "▁다 음",
      "▁ 영",
      "▁ 차",
      "▁으 면",
      "▁ 집",
      "▁ 현",
      "▁ 맞",
      "▁ 직",
      "▁까 지",
      "▁드 립니다",
      "▁배 송",
      "▁구 매",
      "▁ 진",
      "▁ 카",
      "▁ 판",
      "▁귀 사",
      "▁에 요",
      "▁라 고",
      "▁매 우",
      "▁연 락",
      "▁함 께",
      "▁ 단",
      "▁ 너",
      "▁가 격",
      "▁지 금",
      "▁십 시오",
      "▁다 고",
      "▁ 종",
      "이 트",
      "▁ 온",
      "▁도 록",
      "▁판 매",
      "▁습 니까",
      "▁때 문",
      "가 요",
      "▁ 손",
      "▁아 니",
      "▁포 함",
      "▁다 양",
      "▁ 편",
      "▁예 약",
      "▁새 로",
      "▁ 줄",
      "▁ 불",
      "▁ 후",
      "▁드 릴",
      "▁ 약",
      "▁ 준",
      "▁ 셨",
      "▁전 화",
      "▁위 한",
      "▁도 움",
      "▁오 늘",
      "▁ 크",
      "▁어 떻",
      "▁따 라",
      "▁ 국",
      "▁ 완",
      "▁달 러",
      "▁이 것",
      "▁동 안",
      "▁ 항",
      "▁그래 서",
      "▁하 나",
      "▁ 얼",
      "▁ 반",
      "▁모 두",
      "▁다 시",
      "▁프 로",
      "▁여 행",
      "▁여 러",
      "▁는 데",
      "▁그 런",
      "▁새로 운",
      "▁ 길",
      "▁ 품",
      "▁준 비",
      "▁ 목",
      "▁ 언",
      "▁ 플",
      "▁ 년",
      "▁ 참",
      "▁ 노",
      "▁많 이",
      "▁ 메",
      "▁시 작",
      "▁추 가",
      "▁선 택",
      "▁ 운",
      "▁사 업",
      "▁ 명",
      "게 요",
      "▁ 초",
      "▁ 친",
      "▁ 호",
      "▁ 환",
      "▁ 출",
      "▁ 투",
      "▁무 엇",
      "▁ 간",
      "▁ 며",
      "▁ 살",
      "▁ 맛",
      "▁정 보",
      "▁ 4",
      "▁ 레",
      "▁ 테",
      "▁사 항",
      "▁ 강",
      "▁관 심",
      "▁업 체",
      "▁1 0",
      "▁비 용",
      "▁그 럼",
      "▁ 볼",
      "▁ 쉽",
      "▁ 브",
      "▁ 교",
      "▁ 타",
      "▁ 치",
      "▁이 미",
      "▁그러 나",
      "▁디 자",
      "▁ 날",
      "▁ 색",
      "▁말 씀",
      "▁ 버",
      "▁다 면",
      "▁수 도",
      "▁ 충",
      "▁이 상",
      "▁도 와",
      "▁요 리",
      "라 인",
      "▁ 리",
      "▁너 무",
      "▁ 돼",
      "▁ 표",
      "▁경 우",
      "▁공 급",
      "▁ 금",
      "▁ 패",
      "▁아 이",
      "▁해 서",
      "▁얼 마",
      "▁ 등",
      "▁ 점",
      "▁피 부",
      "▁ 열",
      "▁기 능",
      "▁기 다",
      "▁종 류",
      "▁디자 인",
      "▁을 까요",
      "▁온 라인",
      "▁ 질",
      "케 이",
      "▁현 재",
      "▁ 행",
      "▁사 이트",
      "▁다 는",
      "▁이 번",
      "▁지 불",
      "▁ 남",
      "▁ 먼",
      "▁ 응",
      "▁ 산",
      "▁ 웹",
      "▁ 학",
      "▁방 문",
      "▁통 해",
      "▁ 니",
      "▁하 고",
      "▁요 청",
      "세 요",
      "▁보 다",
      "▁ 높",
      "▁이 제",
      "▁계 획",
      "▁ 코",
      "▁어 서",
      "▁보 험",
      "▁ 못",
      "▁ 변",
      "▁으 시",
      "▁ 각",
      "줍 니다",
      "▁ 팀",
      "▁제 안",
      "▁제 조",
      "▁예 정",
      "▁방 법",
      "▁품 질",
      "▁ 절",
      "▁ 좀",
      "▁ 빨",
      "▁ 올",
      "▁ 외",
      "▁ 책",
      "▁ 엄",
      "▁항 상",
      "▁ 본",
      "▁ 큰",
      "▁언 제",
      "▁ 청",
      "▁ 커",
      "▁ 겁",
      "레 이",
      "▁물 론",
      "▁이 나",
      "▁어 야",
      "▁ %",
      "▁ 트",
      "▁적 합",
      "▁최 대",
      "▁친 구",
      "스 트",
      "▁기 술",
      "▁공 간",
      "▁최 고",
      "▁ 걱",
      "▁바 로",
      "▁ 휴",
      "▁아 직",
      "▁걱 정",
      "▁자 동",
      "▁려 면",
      "▁중 요",
      "▁처 리",
      "▁ 양",
      "▁ 평",
      "▁겁 니다",
      "▁ 채",
      "▁유 지",
      "▁ 갈",
      "▁거 래",
      "▁ 곳",
      "▁ 즐",
      "▁ 활",
      "▁상 품",
      "▁직 원",
      "▁할 인",
      "▁ 월",
      "▁ 임",
      "▁안 전",
      "▁ 접",
      "▁ 클",
      "▁ 줍니다",
      "▁투 자",
      "동 산",
      "▁도 매",
      "▁부 동산",
      "▁ 답",
      "▁ 왔",
      "▁세 계",
      "▁ 든",
      "▁진 행",
      "▁ 취",
      "▁사 실",
      "▁일 부",
      "00 0",
      "▁먼 저",
      "▁ 효",
      "▁ 향",
      "▁한 다",
      "▁ 괜",
      "▁괜 찮",
      "▁구 입",
      "랜 드",
      "▁부 터",
      "▁하 루",
      "▁회 의",
      "▁관 리",
      "▁ 머",
      "니 스",
      "▁사 무",
      "▁이 용",
      "▁제 작",
      "▁시 장",
      "▁도 착",
      "▁ 잠",
      "▁시 스",
      "▁ 빠",
      "▁자 세",
      "▁ 던",
      "▁시스 템",
      "▁ 돈",
      "▁작 업",
      "▁건 강",
      "▁결 제",
      "▁여러 분",
      "▁빨 리",
      "▁ 체",
      "▁ 6",
      "▁ 검",
      "▁보 호",
      "▁비 즈",
      "▁색 상",
      "▁ 광",
      "▁ 케이",
      "▁추 천",
      "▁비즈 니스",
      "전 히",
      "▁고 자",
      "▁해 외",
      "▁기 계",
      "▁2 0",
      "▁게 임",
      "▁ 근",
      "▁ 누",
      "▁이 유",
      "▁사 이",
      "▁ 박",
      "▁사 진",
      "▁동 물",
      "▁인 가요",
      "▁또 는",
      "▁장 비",
      "▁경 험",
      "▁가 져",
      "▁설 명",
      "▁호 텔",
      "▁ 담",
      "▁ 페",
      "▁브 랜드",
      "▁어 디",
      "▁ 베",
      "▁ 형",
      "메 라",
      "▁따라 서",
      "▁ 침",
      "▁ 협",
      "부 분",
      "▁지 난",
      "▁카 메라",
      "▁ 000",
      "▁지 역",
      "▁대 부분",
      "▁일 반",
      "▁특 별",
      "▁관 련",
      "▁돼 요",
      "▁개 발",
      "▁출 시",
      "▁질 문",
      "▁구 성",
      "▁ 돌",
      "▁ 견",
      "▁으 신",
      "▁전 문",
      "▁정 도",
      "▁ 께",
      "▁이 름",
      "▁편 안",
      "▁기다 리",
      "▁ 곧",
      "▁1 2",
      "▁생 산",
      "▁얼마 나",
      "▁ 느",
      "▁ 속",
      "▁거 기",
      "▁모 델",
      "▁계 약",
      "▁행 사",
      "▁ 첫",
      "▁ 총",
      "▁부 드",
      "▁결 정",
      "▁ 증",
      "▁이 야",
      "▁식 품",
      "▁이 해",
      "▁이야 기",
      "▁ 째",
      "▁장 치",
      "▁ 토",
      "▁모 르",
      "▁ 8",
      "▁식 사",
      "▁국 제",
      "▁ 죄",
      "▁기 대",
      "▁프로 젝",
      "▁ 7",
      "▁ 얻",
      "▁사 고",
      "▁ 농",
      "▁최 근",
      "▁작 동",
      "▁ 블",
      "▁ 티",
      "▁기 업",
      "▁ 논",
      "▁음 료",
      "▁처 음",
      "▁죄 송",
      "▁ 갖",
      "▁ 였",
      "▁가 게",
      "▁사무 실",
      "▁프로젝 트",
      "▁ 복",
      "디 어",
      "▁지 원",
      "▁세 트",
      "▁오 래",
      "▁ 태",
      "부 터",
      "▁가 요",
      "▁거 든",
      "▁휴 대",
      "▁ 애",
      "▁ 컴",
      "▁이 러",
      "▁ 끝",
      "▁ 잡",
      "▁그 녀",
      "▁ 글",
      "▁아 파",
      "▁보 증",
      "▁재 료",
      "▁직 접",
      "▁ 둘",
      "▁ 컨",
      "▁스 타",
      "▁ 놀",
      "군 요",
      "마 트",
      "▁가 족",
      "▁스 마트",
      "▁답 변",
      "▁ 심",
      "▁전 체",
      "▁ 넣",
      "▁ 역",
      "▁ 천",
      "라 이",
      "▁이 런",
      "▁인 지",
      "▁연 결",
      "▁크 기",
      "▁ 규",
      "▁ 창",
      "▁ 콘",
      "▁최 신",
      "▁포 장",
      "▁파 트",
      "▁목 록",
      "▁아파 트",
      "▁ 왜",
      "▁아 침",
      "▁ 독",
      "▁ 첨",
      "디 오",
      "▁보 고",
      "▁그런 데",
      "▁자동 차",
      "▁파트 너",
      "러 운",
      "▁1 5",
      "▁요 구",
      "▁레 스",
      "▁ 난",
      "▁ 봐",
      "▁해 당",
      "▁인 터",
      "▁계 속",
      "▁참 석",
      "▁ 병",
      "▁보 장",
      "▁거 의",
      "▁ 믿",
      "▁ 별",
      "▁ 키",
      "▁ 팔",
      "▁엄 마",
      "▁그 냥",
      "▁보 관",
      "▁위 치",
      "▁ C",
      "▁ 엔",
      "▁ 허",
      "▁매 장",
      "▁ 메일",
      "▁ 권",
      "▁ 헤",
      "▁저 렴",
      "▁내 용",
      "▁거 나",
      "▁드릴 게요",
      "▁완 벽",
      "▁ 옵",
      "▁보 여",
      "▁여 전히",
      "▁ 즉",
      "▁ 씨",
      "요 일",
      "토 랑",
      "▁저 녁",
      "▁비 행",
      "▁레스 토랑",
      "▁카 드",
      "▁ 몰",
      "▁대 량",
      "▁적 용",
      "▁셔 야",
      "▁효 과",
      "▁논 의",
      "스 크",
      "▁한 테",
      "▁시 설",
      "▁ 궁",
      "▁ 숙",
      "▁그 게",
      "▁해 결",
      "▁선 생",
      "▁테 이",
      "▁임 대",
      "▁ 됐",
      "▁ 봤",
      "스 틱",
      "▁1 00",
      "▁마 음",
      "▁유 명",
      "▁ 액",
      "▁건 물",
      "▁ 러",
      "▁전 기",
      "▁부 분",
      "▁ 뭐",
      "▁ 앞",
      "▁세 부",
      "▁일 정",
      "▁유 형",
      "▁장 소",
      "▁번 호",
      "▁충 분",
      "▁광 고",
      "▁인 기",
      "▁마 세요",
      "▁개 인",
      "▁ 쓰",
      "▁은 데",
      "▁상 황",
      "▁5 0",
      "▁국 가",
      "▁도 시",
      "▁할 게요",
      "▁대 출",
      "▁무 료",
      "▁설 치",
      "▁ 멋",
      "▁내 일",
      "▁ 쉬",
      "▁ 앱",
      "▁나 라",
      "▁정 확",
      "▁ 쇼",
      "이 크",
      "이 터",
      "지 막",
      "▁고 려",
      "▁아 주",
      "▁보 통",
      "▁들 어",
      "▁마 지막",
      "▁라 는",
      "▁조 금",
      "▁아니 요",
      "▁금 액",
      "▁옵 션",
      "▁그 건",
      "▁ 긴",
      "프 트",
      "▁3 0",
      "▁변 경",
      "▁ 뛰",
      "고 기",
      "▁처 럼",
      "▁ 졌",
      "▁과 정",
      "▁건 가요",
      "▁물 건",
      "▁맛 있",
      "▁ 순",
      "▁어 려",
      "▁특 정",
      "▁ 9",
      "이 지",
      "▁스타 일",
      "▁궁 금",
      "▁ \"",
      "▁ 뿐",
      "▁ 줘",
      "쁩 니다",
      "▁아 야",
      "▁자 신",
      "▁관 한",
      "▁노 력",
      "▁든 지",
      "▁첨 부",
      "▁드 렸",
      "▁설 계",
      "▁ 링",
      "▁ 백",
      "▁ 잖",
      "▁ 축",
      "키 지",
      "▁은 행",
      "▁기 쁩니다",
      "▁발 생",
      "▁ 밀",
      "▁ 승",
      "▁ 군요",
      "터 리",
      "▁이 전",
      "▁아 마",
      "▁패 키지",
      "▁ 읽",
      "▁ 혼",
      "▁ 니까",
      "▁확 실",
      "▁재 고",
      "▁특 히",
      "▁플 라",
      "▁거든 요",
      "▁과 일",
      "▁스 트",
      "▁ 놓",
      "리 스",
      "▁제 거",
      "▁기 타",
      "▁스 테",
      "▁없 이",
      "▁방 지",
      "릅 니다",
      "이 스",
      "▁이 렇",
      "▁소 매",
      "▁최 소",
      "▁입 니까",
      "▁보 안",
      "▁대 신",
      "▁서 울",
      "▁실 제",
      "▁ 빌",
      "▁ 훌",
      "▁가 방",
      "▁기 간",
      "▁다 이",
      "▁만 드",
      "▁화 장",
      "▁뛰 어",
      "▁훌 륭",
      "▁ 샘",
      "▁배 터리",
      "▁약 간",
      "▁자세 히",
      "▁이렇 게",
      "▁ 법",
      "웨 어",
      "▁주 소",
      "▁기 에",
      "▁로 부터",
      "▁소 프트",
      "▁마 다",
      "▁확 신",
      "▁학 생",
      "▁ 랑",
      "▁ 밤",
      "▁기 회",
      "▁면 서",
      "▁상 태",
      "▁환 불",
      "▁ 팬",
      "시 아",
      "▁지 속",
      "▁돌 아",
      "▁컴 퓨",
      "▁플라 스틱",
      "▁샘 플",
      "▁ 냉",
      "▁으 세요",
      "▁부 탁",
      "▁될 까요",
      "▁파 티",
      "▁메 뉴",
      "▁운 영",
      "그 램",
      "▁노 트",
      "▁테이 블",
      "▁ 캐",
      "▁ 팩",
      "▁요 금",
      "▁개 월",
      "▁영 화",
      "▁목 적",
      "▁산 업",
      "▁사이 즈",
      "▁비행 기",
      "▁컴퓨 터",
      "▁ -",
      "▁ 눈",
      "▁ 잔",
      "▁회 신",
      "▁성 분",
      "▁인터 넷",
      "▁ 녹",
      "▁ 송",
      "▁ 캠",
      "레 스",
      "▁상 자",
      "▁대해 서",
      "▁한다 고",
      "대 로",
      "▁위 험",
      "▁매 일",
      "▁식 당",
      "▁ 센",
      "▁ 측",
      "벤 트",
      "▁환 영",
      "다 고",
      "므 로",
      "▁시 키",
      "▁만 나",
      "▁소 식",
      "▁환 경",
      "▁날 짜",
      "▁취 소",
      "▁ 렌",
      "▁ 워",
      "▁ 풍",
      "▁이 벤트",
      "▁같 이",
      "▁특 징",
      "다 면",
      "▁기 억",
      "▁연 구",
      "▁손 님",
      "▁소프트 웨어",
      "▁가 구",
      "▁고 급",
      "▁확 장",
      "▁플 랫",
      "▁운 전",
      "▁ ~",
      "▁ 옷",
      "▁전 자",
      "▁는데 요",
      "▁교 체",
      "▁충 전",
      "▁활 동",
      "▁수 영",
      "▁기 기",
      "▁대 표",
      "▁오 후",
      "▁바 라",
      "▁용 품",
      "▁집 니다",
      "▁완 료",
      "▁즉 시",
      "▁ 솔",
      "데 이트",
      "▁무 슨",
      "▁데 이터",
      "▁업 데이트",
      "▁청 소",
      "▁수 입",
      "▁수 출",
      "▁서 류",
      "▁반 려",
      "▁티 켓",
      "▁ 쿠",
      "시 지",
      "▁가 치",
      "▁청 구",
      "▁커 피",
      "T V",
      "▁ 듣",
      "▁ 밖",
      "▁ 압",
      "▁ 탄",
      "듭 니다",
      "▁주 택",
      "▁아 무",
      "▁전 통",
      "▁소 재",
      "▁자 리",
      "▁신 청",
      "▁ 낮",
      "▁ 흥",
      "냅 니다",
      "▁수 업",
      "▁다 행",
      "▁만 든",
      "▁크 림",
      "▁항 공",
      "▁빠 른",
      "▁부드 럽",
      "▁노트 북",
      "▁ 꼭",
      "▁ 착",
      "▁스 럽",
      "▁초 대",
      "▁활 용",
      "▁빠 르",
      "▁근 처",
      "▁담 당",
      "▁ 몸",
      "▁ 니다",
      "닙 니다",
      "▁어 린",
      "▁고 기",
      "▁해 도",
      "▁기 본",
      "▁드 려",
      "▁관 광",
      "▁미 국",
      "▁설 정",
      "▁등 록",
      "▁외 국",
      "▁쇼 핑",
      "▁ 객",
      "▁ 잊",
      "이 션",
      "▁이 동",
      "▁고 요",
      "▁아 서",
      "▁일 어",
      "▁2 5",
      "▁라 면",
      "▁계 정",
      "▁프로 그램",
      "▁침 대",
      "▁확실 히",
      "▁ A",
      "▁ 폼",
      "▁어 울",
      "▁그 곳",
      "▁지 연",
      "▁방 식",
      "▁결 과",
      "▁영 업",
      "▁ 터",
      "▁ 홍",
      "▁주 식",
      "▁아 닙니다",
      "▁내 부",
      "▁선 물",
      "▁차 량",
      "▁메 시지",
      "▁액 세",
      "▁ 탈",
      "▁그 걸",
      "▁보 이",
      "▁헤 드",
      "▁ 범",
      "너 지",
      "▁대 로",
      "▁나 중",
      "▁예 상",
      "▁무 게",
      "▁영 향",
      "▁테 스트",
      "▁ 갔",
      "지 털",
      "▁가 까",
      "▁으 니",
      "▁문 서",
      "▁선 호",
      "▁디 지털",
      "▁단 계",
      "▁편 리",
      "▁기다 려",
      "▁엄 청",
      "▁잖 아",
      "▁ 막",
      "▁ 염",
      "▁ 컬",
      "▁ 힘",
      "동 안",
      "이 드",
      "▁에 너지",
      "▁어 느",
      "▁제 한",
      "▁오 일",
      "▁음 악",
      "▁건 조",
      "▁그래 도",
      "▁5 00",
      "▁간 단",
      "▁표 시",
      "▁협 력",
      "▁속 도",
      "▁ m",
      "▁ 벌",
      "▁ 홈",
      "스 터",
      "▁이 곳",
      "▁의 료",
      "▁신 발",
      "▁신 선",
      "▁위해 서",
      "▁그러 면",
      "▁잠 시",
      "▁께 서",
      "▁ 꽤",
      "▁ 떨",
      "▁ 악",
      "▁ 혹",
      "▁함 유",
      "▁통 화",
      "▁버 스",
      "▁ 섬",
      "▁ 슬",
      "▁ 칼",
      "▁어 제",
      "▁아 래",
      "▁1 1",
      "▁비 디오",
      "▁내 구",
      "▁마 시",
      "▁더 라",
      "▁조 건",
      "▁성 장",
      "▁발 전",
      "▁절 차",
      "▁채 식",
      "▁객 실",
      "▁ 골",
      "▁ 깨",
      "▁ 냄",
      "▁ 봉",
      "▁으 실",
      "▁대 학",
      "▁만 족",
      "▁문 화",
      "▁동 의",
      "▁품 목",
      "케이 션",
      "▁멋 진",
      "▁ k",
      "▁ 롭",
      "▁ 층",
      "다 는",
      "▁인 치",
      "▁전 달",
      "▁안 내",
      "▁요 즘",
      "▁유 통",
      "▁공 유",
      "▁라 인",
      "▁평 가",
      "▁ 닭",
      "▁ 훨",
      "거 운",
      "▁주 요",
      "▁소 비",
      "▁미 리",
      "레이 드",
      "▁훨 씬",
      "▁ 넓",
      "▁ 넘",
      "▁ 익",
      "리 아",
      "▁조 절",
      "▁성 능",
      "▁분 야",
      "▁참 여",
      "▁효 율",
      "▁부드 러운",
      "▁놀 라",
      "▁화장 품",
      "▁ 뒤",
      "▁ 잃",
      "케 팅",
      "▁의 사",
      "▁사 랑",
      "▁마 케팅",
      "▁성 공",
      "▁작 성",
      "▁연락 처",
      "▁학 교",
      "▁전문 가",
      "▁ 얘",
      "▁ 찍",
      "▁인 해",
      "▁2 00",
      "▁마 스크",
      "▁미 디어",
      "▁그렇 게",
      "▁떨 어",
      "▁ 꽃",
      "▁ 암",
      "리 핀",
      "▁이 내",
      "▁수 익",
      "▁오 신",
      "▁구 독",
      "▁필 리핀",
      "▁배 달",
      "▁교 육",
      "▁ 김",
      "우 스",
      "▁수 행",
      "▁사 과",
      "▁인 도",
      "▁전 혀",
      "▁신 뢰",
      "▁조 정",
      "▁프 레",
      "▁국 내",
      "▁치 즈",
      "▁최대 한",
      "▁즐 기",
      "▁숙 박",
      "▁실제 로",
      "▁ c",
      "▁ 혜",
      "▁합 니까",
      "▁기 반",
      "▁아 름",
      "▁인 데",
      "▁인 상",
      "▁예 산",
      "▁부 품",
      "▁물 질",
      "▁재 미",
      "▁결 혼",
      "▁편 의",
      "▁투 어",
      "▁케이 스",
      "▁페 이지",
      "▁휴대 폰",
      "▁혜 택",
      "▁ 류",
      "▁ 멀",
      "▁수 분",
      "▁지 내",
      "▁모 발",
      "▁목 표",
      "▁머 리",
      "▁태 양",
      "▁얘 기",
      "▁ 밝",
      "▁ 져",
      "▁ 택",
      "로 그",
      "▁의 미",
      "▁제 대로",
      "▁시 도",
      "▁우 선",
      "▁계 산",
      "▁식 물",
      "▁분 명",
      "▁책 임",
      "▁도매 가",
      "▁증 가",
      "콜 릿",
      "▁주 방",
      "▁으 며",
      "▁보 낼",
      "▁여 성",
      "▁필 수",
      "▁매 니",
      "▁파 일",
      "▁화 학",
      "▁초 콜릿",
      "▁아이 디어",
      "▁높 이",
      "▁향 상",
      "▁박 람",
      "▁파트너 십",
      "▁뛰어 난",
      "▁ 뭔",
      "▁ 핸",
      "십 시오",
      "▁가 입",
      "▁주 로",
      "▁할 지",
      "▁만 큼",
      "▁부 족",
      "▁배 우",
      "▁물 품",
      "▁운 동",
      "▁한다 는",
      "▁박람 회",
      "▁ 돕",
      "▁ 떠",
      "거 리",
      "릴 까요",
      "▁가 죽",
      "▁지 요",
      "▁만 듭니다",
      "▁자 연",
      "▁자 체",
      "▁영 양",
      "▁손 상",
      "▁완 전히",
      "▁표 준",
      "▁접 근",
      "▁냄 새",
      "▁ 흡",
      "리 미",
      "▁이 랑",
      "▁가 상",
      "▁수 수",
      "▁드 라이",
      "▁일 주",
      "▁안 정",
      "▁소 유",
      "▁필 터",
      "▁신 가요",
      "▁계 좌",
      "▁조 사",
      "▁발 송",
      "▁독 특",
      "▁홍 보",
      "▁ 폴",
      "산 물",
      "▁주 실",
      "▁여 쭤",
      "▁적 절",
      "▁자 랑",
      "▁야 채",
      "▁얼 굴",
      "▁검 사",
      "▁몰 랐",
      "▁흥 미",
      "▁수수 료",
      "▁일주 일",
      "▁ G",
      "▁ 앉",
      "▁주 말",
      "▁다 니",
      "▁알 아",
      "▁결 국",
      "▁진 정",
      "▁4 0",
      "▁커 버",
      "▁승 인",
      "▁스테 인",
      "▁ S",
      "▁ 깊",
      "▁ 빵",
      "랫 동안",
      "미 나",
      "서 리",
      "▁지 하",
      "▁거 리",
      "▁소 스",
      "▁오 랫동안",
      "▁공 원",
      "▁발 견",
      "▁애 플",
      "▁천 연",
      "▁렌 즈",
      "▁c m",
      "▁ 급",
      "▁ 탑",
      "▁ 므로",
      "리 케이션",
      "입 니다",
      "▁의 자",
      "▁시 계",
      "▁시 켜",
      "▁세 탁",
      "▁세 미나",
      "▁소 셜",
      "▁스 틸",
      "▁구 조",
      "▁유 리",
      "▁불 만",
      "▁점 심",
      "▁역 할",
      "▁매니 저",
      "머 니",
      "타 민",
      "▁주 변",
      "▁다 릅니다",
      "▁일 본",
      "▁3 00",
      "▁현 지",
      "▁약 속",
      "▁언 어",
      "▁호 환",
      "▁며 칠",
      "▁남 성",
      "▁케이 크",
      "▁특별 히",
      "▁어린 이",
      "▁k g",
      "▁ 겨",
      "▁ 늘",
      "▁ 딸",
      "▁ 밥",
      "▁ 욕",
      "쨌 든",
      "▁어 쨌든",
      "▁보 유",
      "▁나 무",
      "▁부 서",
      "▁비 싸",
      "▁생 활",
      "▁공 식",
      "▁라 이",
      "▁십 니까",
      "▁다시 피",
      "▁근 데",
      "▁침 실",
      "▁창 고",
      "▁혹 시",
      "▁애플 리케이션",
      "▁ 납",
      "▁ 룸",
      "▁ 망",
      "▁ 민",
      "▁ 샀",
      "드 릴까요",
      "▁가 공",
      "▁어 도",
      "▁수 량",
      "▁수 정",
      "▁기 뻐",
      "▁우 유",
      "▁만 한",
      "▁비 타민",
      "▁내 장",
      "▁계 신",
      "▁조 명",
      "▁걸 리",
      "▁불 편",
      "▁검 토",
      "▁글 쎄",
      "▁착 용",
      "▁ 갑",
      "▁ 딱",
      "▁ 섭",
      "▁ 술",
      "▁ 싱",
      "텐 츠",
      "▁수 용",
      "▁수 준",
      "▁저 장",
      "▁기 존",
      "▁사 본",
      "▁도 구",
      "▁대 단",
      "▁로 서",
      "▁인 쇄",
      "▁개 선",
      "▁방 금",
      "▁상 점",
      "▁장 식",
      "▁장 점",
      "▁잘 못",
      "▁업 무",
      "▁맞 춤",
      "▁간 식",
      "▁도와 드릴까요",
      "▁올 해",
      "▁병 원",
      "▁센 터",
      "▁담당 자",
      "▁ 뉴",
      "▁ 샴",
      "▁ 쓸",
      "조 트",
      "포 츠",
      "▁이 후",
      "▁제 출",
      "▁기 록",
      "▁보 상",
      "▁와 인",
      "▁스 포츠",
      "▁바 닥",
      "▁2 4",
      "▁공 항",
      "▁실 수",
      "▁최 선",
      "▁장 착",
      "▁식 단",
      "▁발 표",
      "▁따 르",
      "▁치 킨",
      "▁리 조트",
      "▁절 약",
      "▁베 이",
      "▁냉 장",
      "▁가까 운",
      "▁ B",
      "▁ I",
      "▁ x",
      "▁ 뭘",
      "▁ 뵙",
      "다 가",
      "봐 도",
      "아 지",
      "▁이 게",
      "▁이 익",
      "▁기 준",
      "▁지 점",
      "▁보 냅니다",
      "▁게 다가",
      "▁전 시",
      "▁정 부",
      "▁공 기",
      "▁공 장",
      "▁매 트",
      "▁종 이",
      "▁출 장",
      "▁살 펴",
      "▁표 면",
      "▁케이 블",
      "▁느 낌",
      "▁콘 텐츠",
      "▁풍 부",
      "▁스테인 리스",
      "주 의",
      "페 인",
      "▁그 림",
      "▁그 쪽",
      "▁한 지",
      "▁해 변",
      "▁인 증",
      "▁신 용",
      "▁추 출",
      "▁미 래",
      "▁프 린",
      "▁프로 세",
      "▁메 모",
      "▁강 아지",
      "▁타 이",
      "▁누 구",
      "▁12 3",
      "▁키 트",
      "▁ P",
      "▁ V",
      "▁ 싫",
      "▁ 희",
      "그 레이드",
      "운 드",
      "▁주 일",
      "▁다 가",
      "▁네 트",
      "▁정 리",
      "▁상 업",
      "▁업 그레이드",
      "▁강 력",
      "▁은데 요",
      "▁섬 유",
      "▁냉장 고",
      "▁ 삼",
      "▁ 탁",
      "▁ 흰",
      "십 니까",
      "잡 이",
      "테 이션",
      "▁이 건",
      "▁에 어",
      "▁가 볍",
      "▁주 스",
      "▁시 트",
      "▁으로 부터",
      "▁더 욱",
      "▁중 국",
      "▁동 료",
      "▁파 스",
      "▁현 금",
      "▁버 전",
      "▁갖 추",
      "▁C C",
      "▁링 크",
      "▁혼 자",
      "▁범 위",
      "▁김 치",
      "▁ 균",
      "▁ 풀",
      "▁이 루",
      "▁어 렵",
      "▁고 무",
      "▁안 심",
      "▁마 이크",
      "▁려 는",
      "▁관 해",
      "▁조 치",
      "▁경 쟁",
      "▁셔 도",
      "▁미 팅",
      "▁용 기",
      "▁용 량",
      "▁현 대",
      "▁진 심",
      "▁온 도",
      "▁완 전",
      "▁머 물",
      "▁견 적",
      "▁허 용",
      "▁액세 서리",
      "▁결혼 식",
      "▁ L",
      "▁ 늦",
      "▁ 벽",
      "▁ 짐",
      "라 우",
      "렉 션",
      "바 일",
      "이 너",
      "저 트",
      "▁그 룹",
      "▁시 험",
      "▁아 닌",
      "▁모 바일",
      "▁스 키",
      "▁스 러운",
      "▁서 명",
      "▁공 학",
      "▁조 리",
      "▁경 제",
      "▁디 저트",
      "▁영 상",
      "▁차 이",
      "▁간 편",
      "▁버 튼",
      "▁본 사",
      "▁트 럭",
      "▁접 시",
      "▁농 장",
      "▁다이 빙",
      "▁외국 인",
      "▁악 기",
      "▁아름 다",
      "▁샴 푸",
      "▁ 덕",
      "▁ 듯",
      "▁ 립",
      "▁ 쌀",
      "▁ 옆",
      "▁ 짧",
      "▁ 철",
      "▁ 컵",
      "▁ 펜",
      "꺼 이",
      "▁합 리",
      "▁기 꺼이",
      "▁할 까요",
      "▁보 냈",
      "▁모 양",
      "▁소 리",
      "▁감 자",
      "▁자 기",
      "▁부 담",
      "▁유 감",
      "▁프 리미",
      "▁손 잡이",
      "▁절 대",
      "▁규 정",
      "▁규 칙",
      "▁프리미 엄",
      "▁ D",
      "▁ 움",
      "워 요",
      "집 니다",
      "▁을 지",
      "▁제 게",
      "▁고 정",
      "▁여 권",
      "▁부 모",
      "▁바 이",
      "▁마 십시오",
      "▁매 끄",
      "▁계 시",
      "▁식 기",
      "▁단 지",
      "▁참 고",
      "▁즐 길",
      "▁박 스",
      "▁스마트 폰",
      "▁컬 렉션",
      "▁암 호",
      "▁분명 히",
      "▁섭 취",
      "▁CC TV",
      "▁ 극",
      "▁ 덜",
      "▁ 뜻",
      "▁ 빛",
      "▁ 짜",
      "▁ 탐",
      "▁ 혁",
      "래 요",
      "로 리",
      "머 지",
      "킵 니다",
      "▁가 득",
      "▁가 이드",
      "▁수 요",
      "▁으 니까",
      "▁로 봇",
      "▁나 머지",
      "▁드 레스",
      "▁자 금",
      "▁자 사",
      "▁자 주",
      "▁조 각",
      "▁업 계",
      "▁응 답",
      "▁양 식",
      "▁투자 자",
      "▁지난 주",
      "▁계약 서",
      "▁헤 어",
      "▁지하 철",
      "▁ F",
      "▁ 끌",
      "▁ 능",
      "▁ 샐",
      "▁ 씩",
      "▁ 쪽",
      "▁ 케",
      "▁ 튼",
      "레 인",
      "젠 테이션",
      "▁가 정",
      "▁시 기",
      "▁나 오",
      "▁정 책",
      "▁방 수",
      "▁관 계",
      "▁장 난",
      "▁조 직",
      "▁분 석",
      "▁따 뜻",
      "▁걸 릴",
      "▁언 급",
      "▁교 환",
      "▁컨 트",
      "▁충분 히",
      "▁아마 도",
      "▁일어 나",
      "▁칼 로리",
      "▁소비 자",
      "▁익 숙",
      "▁샐 러",
      "▁ K",
      "▁ 밴",
      "▁ 씁",
      "▁ 퍼",
      "▁ TV",
      "가 지",
      "니 터",
      "드 백",
      "탈 로그",
      "▁이 걸",
      "▁이 사",
      "▁시 킬",
      "▁시 킵니다",
      "▁으 려",
      "▁대 형",
      "▁나 와",
      "▁모 니터",
      "▁드 론",
      "▁오 전",
      "▁마 감",
      "▁생 선",
      "▁생 일",
      "▁동 일",
      "▁진 짜",
      "▁카 탈로그",
      "▁단 위",
      "▁어떻 게",
      "▁노 래",
      "▁운 송",
      "▁레 이",
      "▁이미 지",
      "▁별 로",
      "▁정확 히",
      "▁스트 리",
      "▁더라 고",
      "▁프레 젠테이션",
      "▁흡 수",
      "▁프린 터",
      "▁움 직",
      "▁튼 튼",
      "▁장난 감",
      "▁샐러 드",
      "▁ 삶",
      "▁ 웨",
      "▁ 존",
      "▁ 칩",
      "▁ 팝",
      "루 션",
      "제 품",
      "▁제 일",
      "▁주 인",
      "▁기 념",
      "▁기 쁘",
      "▁지 지",
      "▁사 야",
      "▁전 략",
      "▁전 부",
      "▁전 원",
      "▁자 산",
      "▁요 소",
      "▁라 벨",
      "▁매 력",
      "▁실 내",
      "▁무 선",
      "▁동 시",
      "▁작 품",
      "▁발 효",
      "▁드릴 까요",
      "▁치 료",
      "▁변 화",
      "▁관리 자",
      "▁쉬 운",
      "▁축 제",
      "▁측 면",
      "▁수영 장",
      "▁솔 루션",
      "▁깨 끗",
      "▁놀라 운",
      "▁파스 타",
      "▁씁 니다",
      "▁ 북",
      "▁ 젤",
      "▁ 촉",
      "▁ 튀",
      "▁ 폭",
      "▁ 훈",
      "로 드",
      "물 관",
      "워 크",
      "▁그 럴",
      "▁주 차",
      "▁사 회",
      "▁입 력",
      "▁우 수",
      "▁스 토",
      "▁사용 자",
      "▁서 로",
      "▁무 역",
      "▁달 라",
      "▁물 어",
      "▁원 단",
      "▁단 순",
      "▁박 물관",
      "▁형 태",
      "▁심 지",
      "▁봐 야",
      "▁청구 서",
      "▁채식 주의",
      "▁닭 고기",
      "▁재미 있",
      "▁욕 실",
      "▁프로세 스",
      "▁ 겪",
      "▁ 셀",
      "▁ 핑",
      "러 시",
      "플 레이",
      "▁의 견",
      "▁고 용",
      "▁수 리",
      "▁지 나",
      "▁사 양",
      "▁아 빠",
      "▁보 드",
      "▁세 척",
      "▁여 름",
      "▁일 단",
      "▁일 상",
      "▁당 연",
      "▁부 착",
      "▁비 자",
      "▁회 전",
      "▁유 기",
      "▁유 연",
      "▁연 장",
      "▁상 사",
      "▁실 망",
      "▁건 설",
      "▁추 적",
      "▁찾 아",
      "▁줄 이",
      "▁항 목",
      "▁참 조",
      "▁강 화",
      "▁어서 요",
      "▁각 각",
      "▁즐 거운",
      "▁클 래",
      "▁클 렌",
      "▁잠 재",
      "▁체 크",
      "▁협 상",
      "▁별 도",
      "▁드려 요",
      "▁컨트 롤",
      "▁ 긍",
      "▁ 샤",
      "▁ 옥",
      "▁ 줬",
      "▁ 톤",
      "리 어",
      "모 션",
      "민 국",
      "▁제 어",
      "▁고 르",
      "▁그 거",
      "▁한 가요",
      "▁주 제",
      "▁아 내",
      "▁아 도",
      "▁도 로",
      "▁으 셨",
      "▁대 리",
      "▁드 린",
      "▁정 기",
      "▁스 크",
      "▁유 닛",
      "▁유 용",
      "▁상 상",
      "▁대한 민국",
      "▁프 라이",
      "▁피 트",
      "▁데 려",
      "▁직 장",
      "▁프로 모션",
      "▁플 랜",
      "▁금 속",
      "▁패 드",
      "▁휴 가",
      "▁몰 라",
      "▁들어 가",
      "▁캠 핑",
      "▁밖 에",
      "▁어울 리",
      "▁여쭤 봐도",
      "▁겨 울",
      "▁대단 히",
      "▁추출 물",
      "▁덕 분",
      "▁혁 신",
      "▁긍 정",
      "▁ U",
      "▁ 둔",
      "▁ 땅",
      "▁ 육",
      "▁ 텐",
      "란 색",
      "위 치",
      "인 트",
      "전 거",
      "찬 가지",
      "▁가 진",
      "▁해 산물",
      "▁보 충",
      "▁보 입니다",
      "▁로 운",
      "▁게 시",
      "▁자 유",
      "▁내 려",
      "▁마 찬가지",
      "▁에게 서",
      "▁유 일",
      "▁연 료",
      "▁집 중",
      "▁단 백",
      "▁종 종",
      "▁완 성",
      "▁반 품",
      "▁참 가",
      "▁볼 게요",
      "▁누 군",
      "▁m m",
      "▁택 시",
      "▁스트리 밍",
      "▁ 벨",
      "▁ 콩",
      "▁ 펌",
      "스 로",
      "시 다",
      "으 니",
      "▁가 끔",
      "▁가 벼",
      "▁고 마",
      "▁지 갑",
      "▁아 시아",
      "▁도 울",
      "▁대 비",
      "▁대 화",
      "▁1 9",
      "▁안 타",
      "▁자 전거",
      "▁라 서",
      "▁신 다면",
      "▁장 기",
      "▁재 정",
      "▁피 자",
      "▁화 면",
      "▁현 실",
      "▁플 레이",
      "▁행 복",
      "▁학 습",
      "▁코 드",
      "▁트 랩",
      "▁둘 러",
      "▁엔 진",
      "▁순 간",
      "▁폴 리",
      "▁흰 색",
      "▁심지 어",
      "▁단백 질",
      "▁ 믹",
      "▁ 샌",
      "▁ 쯤",
      "니 어",
      "자 기",
      "▁어 때",
      "▁기 사",
      "▁다 운",
      "▁세 금",
      "▁인 식",
      "▁일 찍",
      "▁예 술",
      "▁1 8",
      "▁소 요",
      "▁스 파",
      "▁비 교",
      "▁마 실",
      "▁중 개",
      "▁피 드백",
      "▁명 확",
      "▁디자 이너",
      "▁외 부",
      "▁클 라우",
      "▁애 완",
      "▁혼 합",
      "▁스트 레스",
      "▁유기 농",
      "▁누군 가",
      "▁클라우 드",
      "▁ 0",
      "▁ 곤",
      "▁ 맥",
      "▁ 써",
      "▁ 챙",
      "▁ 칠",
      "▁ 튜",
      "▁ 폐",
      "리 지",
      "수 증",
      "▁의 류",
      "▁사 료",
      "▁나 이",
      "▁면 허",
      "▁자 료",
      "▁스 쿠",
      "▁스 튜",
      "▁스 피",
      "▁스 스로",
      "▁구 할",
      "▁매 운",
      "▁배 치",
      "▁경 기",
      "▁재 산",
      "▁미 터",
      "▁그래 픽",
      "▁영 수증",
      "▁차 단",
      "▁불 행",
      "▁초 과",
      "▁테 마",
      "▁타 입",
      "▁머 무",
      "▁증 명",
      "▁드라이 브",
      "▁살펴 보",
      "▁에어 컨",
      "▁더라고 요",
      "▁안타 깝",
      "▁ /",
      "▁ 곡",
      "▁ 끼",
      "▁ 맡",
      "▁ 묻",
      "▁ 졸",
      "▁ 푸",
      "▁ 햄",
      "료 품",
      "보 드",
      "시 간",
      "어 버",
      "옵 니다",
      "외 선",
      "하 물",
      "▁가 스",
      "▁수 하물",
      "▁그 때",
      "▁그 립",
      "▁한 데",
      "▁주 신",
      "▁주 의",
      "▁기 름",
      "▁지 방",
      "▁다 섯",
      "▁세 상",
      "▁과 학",
      "▁소 형",
      "▁개 최",
      "▁선 반",
      "▁선 사",
      "▁한국 인",
      "▁식 료품",
      "▁디 스",
      "▁카 페",
      "▁단 체",
      "▁브 러시",
      "▁답 장",
      "▁누 가",
      "▁가져 오",
      "▁첫 째",
      "▁둘 째",
      "▁콘 서",
      "▁줘 요",
      "▁쿠 션",
      "▁액세 스",
      "▁기뻐 요",
      "▁메모 리",
      "▁탁 월",
      "▁듯 이",
      "▁펌 프",
      "5 0",
      "▁ M",
      "▁ W",
      "▁ 뷔",
      "▁ 촬",
      "▁ 히",
      "양 이",
      "지 니어",
      "▁가 질",
      "▁고 양이",
      "▁사 탕",
      "▁아 기",
      "▁다 리",
      "▁대 회",
      "▁모 터",
      "▁오 븐",
      "▁더 군요",
      "▁생 기",
      "▁공 부",
      "▁연 주",
      "▁실 험",
      "▁알려 져",
      "▁미 니",
      "▁영 어",
      "▁손 목",
      "▁길 거리",
      "▁메 이크",
      "▁날 씨",
      "▁버 터",
      "▁표 현",
      "▁아이 스크",
      "▁먼 지",
      "▁코 코",
      "▁보고 서",
      "▁엔 지니어",
      "▁권 장",
      "▁플랫 폼",
      "▁솔 직",
      "▁네트 워크",
      "▁능 력",
      "▁콘서 트",
      "▁뷔 페",
      "▁촬 영",
      "▁메이크 업",
      "▁아이스크 림",
      "▁ 넌",
      "▁ 붙",
      "▁ 젊",
      "▁ 콜",
      "시 피",
      "테 리어",
      "▁이 틀",
      "▁수 프",
      "▁해 줍니다",
      "▁기 분",
      "▁지 도",
      "▁입 찰",
      "▁나 옵니다",
      "▁인 테리어",
      "▁1 6",
      "▁오 디오",
      "▁스 탠",
      "▁비 슷",
      "▁개 별",
      "▁생 성",
      "▁선 명",
      "▁건 축",
      "▁말 레이",
      "▁통 과",
      "▁화 물",
      "▁구매 자",
      "▁레 시피",
      "▁브 로",
      "▁책 상",
      "▁활 성",
      "▁6 0",
      "▁토 요일",
      "▁복 잡",
      "▁측 정",
      "▁관광 객",
      "▁훈 련",
      "▁디스 플레이",
      "▁말레이 시아",
      "▁ 굉",
      "▁ 낼",
      "▁ 덮",
      "▁ 셰",
      "▁ 숨",
      "▁ 슈",
      "▁ 싸",
      "▁ 윤",
      "▁ 좌",
      "▁ 픽",
      "버 지",
      "약 품",
      "▁수 술",
      "▁사 장",
      "▁다 르",
      "▁인 공",
      "▁모 드",
      "▁여 부",
      "▁했 었",
      "▁자 격",
      "▁스 킨",
      "▁구 체",
      "▁마 련",
      "▁마 을",
      "▁생 명",
      "▁유 효",
      "▁포 트",
      "▁설 탕",
      "▁몇 몇",
      "▁종 일",
      "▁오늘 날",
      "▁교 통",
      "▁돼 지",
      "▁열 리",
      "▁잠 금",
      "▁견 고",
      "▁어려 울",
      "▁송 금",
      "▁쇼핑 몰",
      "▁핸 드",
      "▁알아 보",
      "▁아름다 운",
      "▁스피 커",
      "▁ g",
      "▁ 끈",
      "▁ 홀",
      "턴 트",
      "▁이 중",
      "▁하 이",
      "▁하 우스",
      "▁의 약품",
      "▁고 맙",
      "▁고 민",
      "▁시 리",
      "▁면 도",
      "▁인 생",
      "▁전 력",
      "▁전 용",
      "▁모 습",
      "▁우 려",
      "▁감 지",
      "▁스 프",
      "▁바 르",
      "▁연 간",
      "▁상 관",
      "▁상 담",
      "▁조 립",
      "▁결 함",
      "▁친 절",
      "▁강 한",
      "▁충 족",
      "▁금 지",
      "▁패 널",
      "▁코 팅",
      "▁베 스트",
      "▁느 껴",
      "▁블 랙",
      "▁블 루",
      "▁컨 설",
      "▁숙 소",
      "▁축 하",
      "▁돌아 가",
      "▁냉 동",
      "▁항공 편",
      "▁채식주의 자",
      "▁굉 장",
      "▁ 꺼",
      "▁ 널",
      "▁ 루",
      "▁ 봅",
      "▁ 억",
      "▁ 팁",
      "어 도",
      "어 진",
      "▁에 이",
      "▁기 한",
      "▁아 들",
      "▁적 어도",
      "▁1 4",
      "▁비 해",
      "▁마 우스",
      "▁라 도",
      "▁신 속",
      "▁확 정",
      "▁조 언",
      "▁야 외",
      "▁달 려",
      "▁원 활",
      "▁번 역",
      "▁따 로",
      "▁직 물",
      "▁패 션",
      "▁제조 사",
      "▁올 바",
      "▁도매 상",
      "▁역 사",
      "▁규 모",
      "▁15 0",
      "▁임대 료",
      "▁액 체",
      "▁123 4",
      "▁가벼 운",
      "▁스튜 디오",
      "▁졸 업",
      "▁솔직 히",
      "▁ $",
      "▁ 군",
      "▁ 났",
      "▁ 맺",
      "▁ 멈",
      "▁ 빼",
      "▁ 섞",
      "▁ 틀",
      "▁ 휠",
      "▁ 흔",
      "걸 이",
      "러 워",
      "려 요",
      "없 이",
      "자 리",
      "▁가 르",
      "▁제 휴",
      "▁기 구",
      "▁입 장",
      "▁보 습",
      "▁대 체",
      "▁인 체",
      "▁전 송",
      "▁만 날",
      "▁소 중",
      "▁자 극",
      "▁자 외선",
      "▁위 생",
      "▁바 꾸",
      "▁매 년",
      "▁매 출",
      "▁신 분",
      "▁선 보",
      "▁경 영",
      "▁미 끄",
      "▁결 합",
      "▁화 이트",
      "▁정말 로",
      "▁판매 자",
      "▁여행 자",
      "▁출 발",
      "▁남 아",
      "▁빨 간",
      "▁20 2",
      "▁페 이",
      "▁농 업",
      "▁휴대 용",
      "▁봐 요",
      "▁센 서",
      "▁계신 가요",
      "▁다운 로드",
      "▁맥 주",
      "▁ '",
      "▁ 격",
      "▁ 꿈",
      "▁ 낭",
      "▁ 똑",
      "▁ 뚜",
      "▁ 뜨",
      "▁ 죽",
      "▁ 캡",
      "드 시",
      "때 로",
      "레 르",
      "심 히",
      "환 경",
      "▁은 지",
      "▁제 기",
      "▁수 많",
      "▁그 만",
      "▁한 옥",
      "▁기 관",
      "▁다 만",
      "▁대 하",
      "▁거 실",
      "▁알 레르",
      "▁자 원",
      "▁오 류",
      "▁오 픈",
      "▁비 누",
      "▁중 심",
      "▁때 때로",
      "▁배 울",
      "▁상 당",
      "▁상 의",
      "▁최 종",
      "▁건 지",
      "▁경 매",
      "▁원 래",
      "▁재 생",
      "▁분 리",
      "▁파 란색",
      "▁영 감",
      "▁아니 면",
      "▁불 가",
      "▁친 환경",
      "▁투 명",
      "▁월 요일",
      "▁가져 가",
      "▁블 록",
      "▁어려 움",
      "▁놓 치",
      "▁녹 색",
      "▁워 치",
      "▁다행 히",
      "▁이동 식",
      "▁뭔 가",
      "▁민 감",
      "▁희 망",
      "▁기념 품",
      "▁컨트롤 러",
      "▁대리 점",
      "▁스쿠 버",
      "▁신분 증",
      "▁ E",
      "▁ 벤",
      "▁ 석",
      "▁ 캔",
      "무 리",
      "버 거",
      "블 릿",
      "시 계",
      "페 이지",
      "페 이스",
      "해 요",
      "▁이 어",
      "▁하 드",
      "▁그 분",
      "▁그 대로",
      "▁저 기",
      "▁기 차",
      "▁사 운드",
      "▁보 석",
      "▁로 고",
      "▁나 온",
      "▁인 간",
      "▁여 자",
      "▁소 통",
      "▁정 밀",
      "▁바 디",
      "▁내 주",
      "▁마 무리",
      "▁유 사",
      "▁포 켓",
      "▁셔 츠",
      "▁작 가",
      "▁피 하",
      "▁손 실",
      "▁편 집",
      "▁국 립",
      "▁플 래",
      "▁환 자",
      "▁충 격",
      "▁리 뷰",
      "▁열 심히",
      "▁응 용",
      "▁평 생",
      "▁취 급",
      "▁한다 면",
      "▁견 과",
      "▁태 블릿",
      "▁엄청 난",
      "▁잖아 요",
      "▁염 두",
      "▁힘 들",
      "▁홈 페이지",
      "▁균 형",
      "▁매끄 럽",
      "레인 지",
      "▁샤 워",
      "▁햄 버거",
      "▁스탠 드",
      "▁뚜 껑",
      "▁알레르 기",
      "E D",
      "▁ 걔",
      "▁ 닫",
      "▁ 런",
      "▁ 빈",
      "▁ 쌍",
      "▁ 잉",
      "▁ 켜",
      "▁ 흐",
      "러 스",
      "레 기",
      "루 미",
      "뮤 니",
      "코 올",
      "▁이 거",
      "▁수 락",
      "▁수 명",
      "▁그 날",
      "▁지 식",
      "▁지 침",
      "▁으 셔",
      "▁세 일",
      "▁전 반",
      "▁거 주",
      "▁적 당",
      "▁일 으",
      "▁회 원",
      "▁구 축",
      "▁마 사",
      "▁마 치",
      "▁공 개",
      "▁방 송",
      "▁확 보",
      "▁된 다는",
      "▁재 킷",
      "▁파 우",
      "▁통 신",
      "▁처 방",
      "▁직 업",
      "▁불 구",
      "▁반 드시",
      "▁여행 사",
      "▁품 절",
      "▁명 시",
      "▁친 화",
      "▁리 모",
      "▁금 요일",
      "▁행 동",
      "▁올 라",
      "▁올 려",
      "▁엄 격",
      "▁커 뮤니",
      "▁평 소",
      "▁채 널",
      "▁채 소",
      "▁접 수",
      "▁취 하",
      "▁체 육",
      "▁느 끼",
      "▁8 0",
      "▁태 국",
      "▁허 브",
      "▁쓰 레기",
      "▁어려 운",
      "▁니까 요",
      "▁전자 레인지",
      "▁컬 러",
      "▁봉 사",
      "▁택 배",
      "▁세탁 기",
      "▁이루 어",
      "▁밴 드",
      "▁샌 드",
      "▁손목 시계",
      "▁에이 전",
      "▁낭 비",
      "루미 늄",
      "E O",
      "▁ H",
      "▁ R",
      "▁ 뒷",
      "런 스",
      "▁이 탈",
      "▁어 머니",
      "▁의 향",
      "▁제 시",
      "▁시 각",
      "▁시 원",
      "▁아 버지",
      "▁보 일",
      "▁로 그",
      "▁나 누",
      "▁나 타",
      "▁과 거",
      "▁드 실",
      "▁알 리",
      "▁알 루미늄",
      "▁만 약",
      "▁예 방",
      "▁정 신",
      "▁구 나",
      "▁구 하",
      "▁유 제품",
      "▁공 연",
      "▁공 정",
      "▁중 인",
      "▁실 행",
      "▁발 명",
      "▁편 지",
      "▁반 응",
      "▁리 터",
      "▁기다 릴",
      "▁행 운",
      "▁남 자",
      "▁코 스",
      "▁각 질",
      "▁클 럽",
      "▁클 릭",
      "▁향 수",
      "▁머 그",
      "▁페 인트",
      "▁스테 이크",
      "▁빌 라",
      "▁목적 지",
      "▁워 킹",
      "▁25 0",
      "▁A I",
      "▁헤드 폰",
      "▁핸 들",
      "▁뉴 욕",
      "▁U S",
      "▁시리 즈",
      "▁ 깔",
      "▁ 꾸",
      "▁ 래",
      "▁ 묘",
      "▁ 밸",
      "▁ 칫",
      "▁ 흘",
      "▁ 냅니다",
      "납 니다",
      "셔 츠",
      "수 록",
      "팩 트",
      "▁의 해",
      "▁그 릇",
      "▁주 저",
      "▁사 원",
      "▁사 전",
      "▁으 십니까",
      "▁보 조",
      "▁로 션",
      "▁모 릅니다",
      "▁드 디어",
      "▁일 회",
      "▁예 전",
      "▁와 이",
      "▁감 시",
      "▁부 엌",
      "▁부 인",
      "▁바 나",
      "▁비 싼",
      "▁내 역",
      "▁달 콤",
      "▁성 인",
      "▁번 거",
      "▁용 도",
      "▁설 립",
      "▁화 폐",
      "▁카 운",
      "▁금 융",
      "▁아이 스",
      "▁평 방",
      "▁검 색",
      "▁티 셔츠",
      "▁갖 춘",
      "▁역 시",
      "▁인터 페이스",
      "▁허 가",
      "▁멋 지",
      "▁송 장",
      "▁아무 것",
      "▁항공 사",
      "▁납 니다",
      "▁갑 자기",
      "▁L ED",
      "▁불행 히",
      "▁샌드 위치",
      "▁칫 솔",
      "▁ 럼",
      "▁ 벗",
      "▁ 앨",
      "▁ 킬",
      "▁ 텔",
      "▁ 펀",
      "▁ 핫",
      "데 요",
      "드 립니다",
      "스 테",
      "영 상",
      "▁을 까",
      "▁가 전",
      "▁어 떠",
      "▁도 달",
      "▁으 므로",
      "▁일 치",
      "▁소 파",
      "▁소 포",
      "▁오 랜",
      "▁오 렌",
      "▁부 스",
      "▁스 케",
      "▁스 티",
      "▁바 다",
      "▁구 비",
      "▁내 리",
      "▁마 스터",
      "▁생 겼",
      "▁실 례",
      "▁동 영상",
      "▁조 심",
      "▁조 차",
      "▁조 합",
      "▁달 리",
      "▁식 량",
      "▁미 용",
      "▁통 합",
      "▁걸 로",
      "▁걸 립니다",
      "▁현 장",
      "▁편 하",
      "▁줄 여",
      "▁불 러",
      "▁준 수",
      "▁크 리스",
      "▁반 갑",
      "▁메 인",
      "▁초 기",
      "▁레 몬",
      "▁강 철",
      "▁질 병",
      "▁트 리",
      "▁휴 식",
      "▁콘 솔",
      "▁승 객",
      "▁캠 페인",
      "▁쿠 키",
      "▁헤드 셋",
      "▁벌 써",
      "▁사과 드립니다",
      "▁떠 나",
      "▁폴리 에",
      "▁튜 브",
      "▁체육 관",
      "▁이탈 리아",
      "▁바나 나",
      "▁앨 범",
      "o r",
      "▁ T",
      "▁ 낫",
      "▁ 땀",
      "▁ 뷰",
      "▁ 젖",
      "▁ 척",
      "▁ 킹",
      "▁ 템",
      "▁ 휘",
      "라 고",
      "로 운",
      "르 트",
      "몬 드",
      "운 데",
      "으 며",
      "칩 니다",
      "▁수 납",
      "▁수 상",
      "▁한 식",
      "▁주 거",
      "▁주 머니",
      "▁저 축",
      "▁기 어",
      "▁지 정",
      "▁시 켰",
      "▁입 술",
      "▁다 를",
      "▁세 련",
      "▁인 사",
      "▁과 자",
      "▁거 부",
      "▁1 7",
      "▁감 소",
      "▁정 해",
      "▁문 구",
      "▁비 밀",
      "▁2 3",
      "▁회 복",
      "▁내 년",
      "▁개 당",
      "▁중 간",
      "▁신 경",
      "▁신 호",
      "▁경 찰",
      "▁물 류",
      "▁작 년",
      "▁분 류",
      "▁그래 야",
      "▁두 려",
      "▁그렇 지만",
      "▁차 지",
      "▁약 관",
      "▁완 비",
      "▁초 보",
      "▁4 5",
      "▁4 00",
      "▁교 수",
      "▁치 수",
      "▁아이 템",
      "▁등 급",
      "▁보험 료",
      "▁농 산물",
      "▁빌 리",
      "▁다이 어",
      "▁신청 서",
      "▁떨어 져",
      "▁프레 임",
      "▁매트 리스",
      "▁립 스틱",
      "▁으려 면",
      "▁단순 히",
      "▁체크 인",
      "▁면허 증",
      "▁코코 넛",
      "▁좌 석",
      "▁마사 지",
      "▁일회 용",
      "▁오렌 지",
      "6 7",
      "I P",
      "▁ 깜",
      "▁ 끊",
      "▁ 밑",
      "▁ 쇠",
      "▁ 앤",
      "▁ 옮",
      "▁ 칭",
      "▁ 퇴",
      "▁ 핏",
      "▁ 황",
      "라 믹",
      "리 터",
      "언 가",
      "업 자",
      "으 면",
      "카 락",
      "퍼 니",
      "화 물",
      "▁어 렸",
      "▁한 정",
      "▁지 구",
      "▁아 프",
      "▁세 관",
      "▁세 라믹",
      "▁나 쁜",
      "▁인 형",
      "▁전 국",
      "▁전 액",
      "▁전 환",
      "▁여 유",
      "▁알 코올",
      "▁1 3",
      "▁소 지",
      "▁정 원",
      "▁부 과",
      "▁비 트",
      "▁회 계",
      "▁마 침",
      "▁됩 니까",
      "▁신 고",
      "▁연 습",
      "▁연 회",
      "▁최 적",
      "▁무 언가",
      "▁조 작",
      "▁원 해요",
      "▁새 우",
      "▁영 광",
      "▁카 트",
      "▁가격 표",
      "▁종 료",
      "▁운 반",
      "▁출 판",
      "▁강 도",
      "▁요리 사",
      "▁남 기",
      "▁남 편",
      "▁즐 겁",
      "▁즐 겨",
      "▁근 무",
      "▁토 지",
      "▁7 0",
      "▁컴 퍼니",
      "▁잡 지",
      "▁믿 기",
      "▁어려 워",
      "▁빌 릴",
      "▁뛰어 나",
      "▁송 료",
      "▁탄 산",
      "▁편의 점",
      "▁머리 카락",
      "▁뭔 가요",
      "▁탑 재",
      "▁V IP",
      "▁빛 나",
      "▁팝 업",
      "▁클래 스",
      "▁고마 워",
      "▁픽 업",
      "▁굉장 히",
      "▁똑 같",
      "▁로그 인",
      "▁US B",
      "▁카운 터",
      "6 0",
      "a n",
      "▁ 섹",
      "▁ 얇",
      "▁ 핵",
      "▁ 혈",
      "가 락",
      "고 리",
      "리 오",
      "마 자",
      "아 들",
      "위 기",
      "케 어",
      "▁제 외",
      "▁수 령",
      "▁주 최",
      "▁지 능",
      "▁지 퍼",
      "▁시 대",
      "▁아 웃",
      "▁으 러",
      "▁보 수",
      "▁대 상",
      "▁대 중",
      "▁게 이",
      "▁으로 서",
      "▁모 기",
      "▁모 험",
      "▁드 셔",
      "▁여 분",
      "▁적 극",
      "▁소 금",
      "▁당 일",
      "▁당 장",
      "▁자 재",
      "▁자 마자",
      "▁정 수",
      "▁부 르",
      "▁부 위",
      "▁비 서",
      "▁비 율",
      "▁내 어",
      "▁유 럽",
      "▁방 향",
      "▁장 애",
      "▁야 간",
      "▁성 함",
      "▁재 질",
      "▁분 위기",
      "▁미 술",
      "▁새 롭",
      "▁파 이",
      "▁화 상",
      "▁맞 춰",
      "▁단 일",
      "▁얼 음",
      "▁길 이",
      "▁명 의",
      "▁패 턴",
      "▁즐 거",
      "▁취 향",
      "▁체 중",
      "▁놀 랍",
      "▁놀 랐",
      "▁심 장",
      "▁첨 가",
      "▁테이 프",
      "▁최소 한",
      "▁화장 실",
      "▁압 축",
      "▁어울 릴",
      "▁기다려 야",
      "▁아름 답",
      "▁멀 리",
      "▁태양 광",
      "▁깊 이",
      "▁글쎄 요",
      "▁철 저",
      "▁바이 러스",
      "▁으려 고",
      "▁모니터 링",
      "▁튀 김",
      "▁W i",
      "▁스킨 케어",
      "▁경영 진",
      "▁킬 로",
      "▁텔 레",
      "▁템 플",
      "▁섹 션",
      "e s",
      "▁ 덤",
      "▁ 숫",
      "▁ 울",
      "▁ 탱",
      "▁ 헬",
      "▁ 듭니다",
      "그 래",
      "깁 니다",
      "드 름",
      "뮬 러",
      "미 터",
      "봐 야",
      "비 전",
      "수 수",
      "은 색",
      "주 얼",
      "카 드",
      "▁어 떨",
      "▁수 면",
      "▁수 확",
      "▁그 랬",
      "▁합 성",
      "▁해 상",
      "▁지 리",
      "▁시 내",
      "▁시 일",
      "▁시 청",
      "▁보 낸",
      "▁인 원",
      "▁모 금",
      "▁여 드름",
      "▁우 편",
      "▁자 고",
      "▁자 율",
      "▁정 상",
      "▁비 닐",
      "▁비 상",
      "▁2 1",
      "▁2 2",
      "▁유 익",
      "▁신 규",
      "▁신 축",
      "▁계 란",
      "▁계 십니까",
      "▁동 네",
      "▁받 아들",
      "▁장 갑",
      "▁장 례",
      "▁건 너",
      "▁달 성",
      "▁포 뮬러",
      "▁재 무",
      "▁미 치",
      "▁피 해",
      "▁두 피",
      "▁영 역",
      "▁단 단",
      "▁불 량",
      "▁약 국",
      "▁반 면",
      "▁강 조",
      "▁질 감",
      "▁절 단",
      "▁올 리",
      "▁외 관",
      "▁채 팅",
      "▁머 신",
      "▁체 험",
      "▁광 택",
      "▁담 배",
      "▁베 이스",
      "▁돌 려",
      "▁블 레이드",
      "▁컴 팩트",
      "▁글 로",
      "▁놀 이",
      "▁심 각",
      "▁창 의",
      "▁긴 장",
      "▁줘 서",
      "▁백 신",
      "▁녹 음",
      "▁충전 기",
      "▁흥 분",
      "▁어울 립니다",
      "▁엄청 나",
      "▁봉 지",
      "▁잃 어버",
      "▁인데 요",
      "▁G P",
      "▁다가 오",
      "▁삼 각",
      "▁F i",
      "▁케 어",
      "▁존 재",
      "▁클래 식",
      "▁옥 수수",
      "▁벨 트",
      "▁중개 인",
      "▁올바 른",
      "▁상당 히",
      "▁이어 폰",
      "▁뷰 티",
      "67 8",
      "▁쇠 고기",
      "▁텔레 비전",
      "▁숫 자",
      "P A",
      "e a",
      "o m",
      "▁ 긁",
      "▁ 끓",
      "▁ 삽",
      "▁ 셋",
      "▁ 씻",
      "▁ 잎",
      "▁ 흠",
      "나 무",
      "러 지",
      "로 이드",
      "셀 러",
      "신 료",
      "쌉 니다",
      "에 도",
      "푸 드",
      "▁을 게요",
      "▁수 년",
      "▁그 릴",
      "▁합 의",
      "▁주 지",
      "▁기 울",
      "▁지 급",
      "▁지 켜",
      "▁세 대",
      "▁들 리",
      "▁나 왔",
      "▁면 적",
      "▁인 정",
      "▁우 린",
      "▁우 아",
      "▁소 독",
      "▁소 음",
      "▁오 른",
      "▁오 염",
      "▁부 산",
      "▁스 위",
      "▁바 꿀",
      "▁유 행",
      "▁연 기",
      "▁배 웠",
      "▁배 포",
      "▁상 쾌",
      "▁음 성",
      "▁한국 어",
      "▁재 배",
      "▁작 용",
      "▁분 실",
      "▁미 안",
      "▁파 손",
      "▁용 이",
      "▁통 제",
      "▁진 출",
      "▁너 비",
      "▁불 과",
      "▁따라 야",
      "▁초 점",
      "▁출 력",
      "▁간 주",
      "▁그럼 에도",
      "▁교 사",
      "▁리 필",
      "▁패 스트",
      "▁등 산",
      "▁답 니다",
      "▁향 신료",
      "▁이용 해",
      "▁체 인",
      "▁검 은색",
      "▁이유 로",
      "▁가져 왔",
      "▁지난 번",
      "▁개발 자",
      "▁농 부",
      "▁복 용",
      "▁요구 르트",
      "▁키 보드",
      "▁축 구",
      "▁밀 리",
      "▁캐 주얼",
      "▁잔 디",
      "▁옷 장",
      "▁압 력",
      "▁터 치",
      "▁슬 라이",
      "▁골 프",
      "▁멀 티",
      "▁져 다",
      "▁타이 어",
      "▁관해 서",
      "▁차이 점",
      "▁레이 저",
      "▁움직 이",
      "▁클렌 징",
      "▁스크 린",
      "▁몰라 요",
      "▁슈 퍼",
      "▁베스트 셀러",
      "▁잉 크",
      "▁다이어 트",
      "▁글로 벌",
      "o n",
      "t i",
      "▁ 껍",
      "▁ 델",
      "▁ 돋",
      "▁ 묶",
      "▁ 짓",
      "▁ 쳐",
      "가 포",
      "갑 니다",
      "규 모",
      "닐 라",
      "류 장",
      "릭 터",
      "마 토",
      "범 위",
      "세 척",
      "아 웃",
      "천 히",
      "코 니",
      "트 업",
      "퍼 런스",
      "▁는 다는",
      "▁가 본",
      "▁가 슴",
      "▁의 존",
      "▁고 대",
      "▁고 등",
      "▁수 동",
      "▁수 제",
      "▁수 집",
      "▁그 저",
      "▁합 시다",
      "▁해 졌",
      "▁주 행",
      "▁기 내",
      "▁지 사",
      "▁사 기",
      "▁사 우",
      "▁다 크",
      "▁대 여",
      "▁나 사",
      "▁모 임",
      "▁소 규모",
      "▁와 우",
      "▁감 정",
      "▁정 류장",
      "▁스 틱",
      "▁스 페인",
      "▁비 쌉니다",
      "▁구 운",
      "▁내 내",
      "▁마 셔",
      "▁개 념",
      "▁매 주",
      "▁중 앙",
      "▁최 상",
      "▁무 서",
      "▁무 거운",
      "▁계 세요",
      "▁선 불",
      "▁조 달",
      "▁된 다고",
      "▁경 로",
      "▁물 고기",
      "▁원 료",
      "▁원 자",
      "▁원 한",
      "▁3 5",
      "▁용 지",
      "▁데 스크",
      "▁발 코니",
      "▁만들 어진",
      "▁단 골",
      "▁불 법",
      "▁완 화",
      "▁반 죽",
      "▁노 동",
      "▁맛 보",
      "▁볼 트",
      "▁브 라",
      "▁치 아",
      "▁치 약",
      "▁공급 자",
      "▁열 려",
      "▁열 쇠",
      "▁코 리아",
      "▁광 범위",
      "▁협 업",
      "▁협 조",
      "▁토 론",
      "▁토 마토",
      "▁컨 디",
      "▁스타 트업",
      "▁천 만",
      "▁천 천히",
      "▁창 문",
      "▁독 점",
      "▁팔 리",
      "▁허 리",
      "▁들어 오",
      "▁긴 급",
      "▁9 0",
      "▁다이 얼",
      "▁돌아 오",
      "▁캐 릭터",
      "▁염 색",
      "▁혹 은",
      "▁더라 도",
      "▁골 드",
      "▁탑 승",
      "▁싱 가포",
      "▁전시 회",
      "▁식기 세척",
      "▁짜 리",
      "▁촉 진",
      "▁컨설 턴트",
      "▁봅 니다",
      "▁빨간 색",
      "▁에이전 트",
      "▁핵 심",
      "▁싱가포 르",
      "▁식기세척 기",
      "▁ °",
      "▁ 낙",
      "▁ 닝",
      "▁ 띄",
      "▁ 롤",
      "▁ 뿌",
      "▁ 왼",
      "▁ 탭",
      "▁ 털",
      "▁ 햇",
      "램 프",
      "리 카",
      "마 스",
      "수 화물",
      "어 링",
      "염 병",
      "오 르",
      "일 러",
      "조 림",
      "테 리아",
      "▁이 국",
      "▁이 웃",
      "▁이 자",
      "▁가 금",
      "▁고 추",
      "▁고 통",
      "▁수 록",
      "▁수 백",
      "▁한 편",
      "▁주 름",
      "▁주 목",
      "▁사 면",
      "▁입 구",
      "▁입 증",
      "▁다 닐",
      "▁대 기",
      "▁대 의",
      "▁대 행",
      "▁나 쁘",
      "▁인 한",
      "▁전 망",
      "▁일 요일",
      "▁예 측",
      "▁안 경",
      "▁소 고기",
      "▁와 트",
      "▁당 근",
      "▁자 녀",
      "▁자 본",
      "▁정 의",
      "▁정 품",
      "▁문 자",
      "▁부 츠",
      "▁스 무",
      "▁바 람",
      "▁유 아",
      "▁공 예",
      "▁중 단",
      "▁실 패",
      "▁실 시간",
      "▁확 대",
      "▁장 미",
      "▁경 력",
      "▁경 향",
      "▁포 스터",
      "▁원 했",
      "▁식 탁",
      "▁미 식",
      "▁결 코",
      "▁피 곤",
      "▁통 조림",
      "▁화 재",
      "▁현 미",
      "▁진 공",
      "▁단 점",
      "▁줄 게",
      "▁줄 일",
      "▁국 수",
      "▁얼 룩",
      "▁강 의",
      "▁버 리",
      "▁버 섯",
      "▁리 더",
      "▁리 스트",
      "▁금 리",
      "▁코 너",
      "▁못 한",
      "▁제안 서",
      "▁갈 색",
      "▁임 상",
      "▁잠 깐",
      "▁누 르",
[...]
